<unk>	0
<s>	0
</s>	0
▁이	-0
했다	-1
▁“	-2
▁사	-3
으로	-4
▁1	-5
에서	-6
▁경	-7
▁있	-8
▁대	-9
▁2	-10
▁A	-11
▁등	-12
▁수	-13
▁지	-14
▁전	-15
▁것	-16
▁주	-17
▁조	-18
혐의	-19
▁경찰	-20
▁혐의	-21
▁‘	-22
▁한	-23
씨는	-24
▁아	-25
▁기	-26
▁있다	-27
▁받	-28
하고	-29
▁부	-30
▁보	-31
▁피	-32
▁가	-33
▁정	-34
▁관	-35
▁검	-36
▁선	-37
▁것으로	-38
▁의	-39
▁공	-40
▁서	-41
▁인	-42
▁위	-43
에게	-44
▁자	-45
▁신	-46
▁중	-47
▁재	-48
▁지난	-49
▁상	-50
▁않	-51
▁구	-52
▁국	-53
▁오	-54
▁여	-55
▁3	-56
됐다	-57
하는	-58
▁제	-59
▁고	-60
▁범	-61
▁시	-62
▁B	-63
▁유	-64
▁20	-65
▁김	-66
▁피해	-67
▁다	-68
▁성	-69
▁수사	-70
▁밝	-71
기사	-72
▁사건	-73
▁방	-74
..	-75
▁없	-76
...	-77
▁그	-78
▁법	-79
▁진	-80
▁재판	-81
▁주요	-82
▁혐의로	-83
▁내	-84
▁조사	-85
▁5	-86
▁주요기사	-87
▁불	-88
▁검찰	-89
▁서울	-90
▁일	-91
▁확	-92
▁발	-93
졌다	-94
▁알	-95
▁나	-96
▁당	-97
▁해	-98
▁강	-99
혔다	-100
▁입	-101
이다	-102
▁모	-103
▁동	-104
▁4	-105
▁반	-106
▁하	-107
▁말	-108
▁소	-109
라고	-110
▁선고	-111
▁도	-112
씨가	-113
경찰	-114
▁남	-115
▁마	-116
면서	-117
▁따	-118
▁경찰은	-119
▁판	-120
▁밝혔다	-121
▁어	-122
▁피해자	-123
부터	-124
▁추	-125
▁차	-126
▁범행	-127
▁대한	-128
▁안	-129
▁살	-130
▁결	-131
았다	-132
뉴스	-133
▁만	-134
씨의	-135
▁대해	-136
▁10	-137
▁했다	-138
지만	-139
▁무	-140
▁현	-141
었다	-142
▁등을	-143
▁뒤	-144
▁회	-145
▁있는	-146
▁장	-147
▁구속	-148
▁징	-149
▁최	-150
▁집	-151
▁출	-152
폭행	-153
▁또	-154
▁관련	-155
▁통	-156
▁혐의를	-157
▁처	-158
까지	-159
▁국민	-160
씨를	-161
▁형	-162
▁(	-163
▁적	-164
▁직	-165
▁청	-166
▁원	-167
▁교	-168
▁확인	-169
▁징역	-170
▁비	-171
▁기소	-172
▁6	-173
▁201	-174
조사	-175
▁영	-176
▁변	-177
▁與	-178
▁특	-179
장을	-180
▁때	-181
▁받고	-182
부는	-183
들이	-184
▁과	-185
르면	-186
▁학	-187
1)	-188
▁실	-189
▁당시	-190
▁거	-191
▁후	-192
▁따르면	-193
▁알려	-194
▁운	-195
▁게	-196
▁자신	-197
▁취	-198
▁점	-199
다고	-200
▁오후	-201
다는	-202
▁관계	-203
▁7	-204
▁8	-205
▁연	-206
▁설	-207
▁증	-208
▁양	-209
▁앞	-210
▁미	-211
▁감	-212
▁국민의	-213
▁의혹	-214
▁행	-215
하지	-216
▁같	-217
▁신고	-218
▁경찰에	-219
이라고	-220
▁명	-221
▁사실	-222
▁국민의힘	-223
▁넘	-224
▁이날	-225
▁개	-226
▁숨	-227
▁계	-228
▁문	-229
▁위반	-230
▁아동	-231
▁못	-232
00	-233
적으로	-234
▁폭행	-235
서는	-236
▁말했다	-237
▁지난해	-238
▁예	-239
▁요	-240
지지	-241
▁바	-242
자는	-243
하기	-244
지법	-245
▁파	-246
▁심	-247
▁박	-248
▁여성	-249
▁©	-250
원을	-251
▁진행	-252
▁11	-253
서울	-254
했다고	-255
▁생	-256
대로	-257
시스	-258
▁N	-259
범죄	-260
▁오전	-261
이트	-262
▁측	-263
▁범죄	-264
▁위해	-265
선택	-266
▁9	-267
▁주장	-268
▁씨는	-269
▁및	-270
에는	-271
▁통해	-272
역선택	-273
▁방지	-274
▁항	-275
▁알려졌다	-276
▁세	-277
ew	-278
▁재판부는	-279
뉴시스	-280
▁벌	-281
ews	-282
▁저	-283
고인	-284
▁News	-285
된다	-286
들은	-287
▁이어	-288
수사	-289
하게	-290
▁형사	-291
▁변호	-292
▁씨	-293
▁함	-294
▁분	-295
▁남성	-296
▁들	-297
한다	-298
▁C	-299
▁준	-300
▁진술	-301
20	-302
이라	-303
▁열	-304
부장	-305
▁달	-306
▁이후	-307
▁채	-308
▁금	-309
▁이유	-310
▁발견	-311
사는	-312
▁총	-313
▁인정	-314
▁검찰은	-315
▁보이	-316
▁목	-317
위원	-318
▁기자	-319
하려	-320
하다	-321
▁손	-322
▁상태	-323
▁같은	-324
▁올	-325
▁받는	-326
▁함께	-327
▁등에	-328
기로	-329
▁투	-330
폭력	-331
▁12	-332
▁[	-333
▁처벌	-334
적인	-335
▁배	-336
년을	-337
에도	-338
씨에게	-339
▁판단	-340
▁치	-341
개월	-342
▁항소	-343
▁해당	-344
▁관계자는	-345
▁살해	-346
▁단	-347
▁화	-348
▁우	-349
▁모두	-350
▁표	-351
▁법원	-352
▁송	-353
▁결과	-354
정에서	-355
▁전해	-356
▁광	-357
였다	-358
의자	-359
윤석	-360
들을	-361
▁건	-362
들의	-363
▁종	-364
윤석열	-365
▁본	-366
▁체	-367
▁30	-368
▁친	-369
▁범행을	-370
▁외	-371
▁약	-372
▁자신의	-373
▁없다	-374
▁않았다	-375
ng	-376
▁아니	-377
▁내용	-378
해야	-379
▁음	-380
장은	-381
▁살인	-382
▁포	-383
▁병	-384
▁접	-385
▁게이트	-386
▁두	-387
om	-388
명을	-389
com	-390
지는	-391
ong	-392
▁윤	-393
▁업	-394
”...	-395
▁전해졌다	-396
▁대표	-397
겠다	-398
▁허	-399
dong	-400
donga	-401
▁넘겨	-402
▁재판에	-403
사를	-404
▁설명	-405
위를	-406
▁노	-407
했고	-408
▁발생	-409
장이	-410
▁기소된	-411
▁한다	-412
▁다른	-413
▁아이	-414
기를	-415
▁사람	-416
▁고발	-417
경찰청	-418
▁언	-419
▁사망	-420
▁국정	-421
19	-422
▁매	-423
씨와	-424
▁압	-425
▁예정	-426
▁등의	-427
▁앞서	-428
▁필	-429
▁조항	-430
하며	-431
▁파악	-432
▁붙	-433
으며	-434
▁경우	-435
차례	-436
▁걸	-437
▁없는	-438
▁증거	-439
▁지난달	-440
▁민	-441
▁임	-442
경찰서는	-443
(2	-444
▁보고	-445
▁반영	-446
▁회수	-447
시간	-448
▁경찰이	-449
▁구속영	-450
▁스	-451
거나	-452
▁차량	-453
판사	-454
▁흉	-455
▁신청	-456
만원	-457
▁협	-458
▁논	-459
▁담	-460
▁그러	-461
▁초	-462
상을	-463
▁드	-464
▁경기	-465
▁참	-466
▁운영	-467
▁인천	-468
하려면	-469
▁물	-470
났다	-471
도록	-472
▁충	-473
심에서	-474
▁택	-475
▁D	-476
▁관한	-477
▁선호	-478
▁휴	-479
▁불법	-480
▁洪	-481
확장	-482
▁반영하려면	-483
▁과정에서	-484
▁받아	-485
지지층	-486
▁속	-487
▁코	-488
▁술	-489
으나	-490
▁순	-491
▁받은	-492
▁용	-493
하면서	-494
▁국정조사	-495
형을	-496
▁검사	-497
▁설명했다	-498
▁"	-499
▁이재	-500
▁선고했다	-501
▁이용	-502
▁더	-503
▁찾	-504
되는	-505
▁근	-506
▁밝혀	-507
증거	-508
▁피고인	-509
라는	-510
▁역	-511
▁선고받	-512
▁합	-513
들에게	-514
▁잠	-515
(3	-516
▁수사를	-517
인이	-518
지검	-519
▁의원	-520
해자	-521
▁잡	-522
▁사고	-523
소년	-524
▁가능	-525
▁들어	-526
▁이를	-527
▁상황	-528
▁이재명	-529
▁공판	-530
▁공개	-531
로나	-532
▁부인	-533
학대	-534
법원	-535
▁않은	-536
▁않는	-537
▁여론	-538
▁집행	-539
▁군	-540
▁도입	-541
▁검찰에	-542
▁직원	-543
▁운전	-544
명이	-545
▁반대	-546
경찰서	-547
낙연	-548
▁붙잡	-549
그램	-550
(5	-551
▁학대	-552
▁추가	-553
▁이에	-554
▁교수	-555
▁피의자	-556
▁할	-557
▁병원	-558
(4	-559
▁따라	-560
▁돈	-561
000	-562
▁요청	-563
▁있었다	-564
리를	-565
▁현장	-566
▁하는	-567
▁법무	-568
는데	-569
▁결정	-570
▁尹	-571
▁휴대	-572
▁절	-573
지를	-574
▁40	-575
▁부산	-576
▁조사를	-577
▁광주	-578
파트	-579
▁“‘	-580
▁15	-581
▁간	-582
분께	-583
▁제출	-584
▁된다	-585
▁누	-586
관계	-587
▁요구	-588
▁첫	-589
▁19	-590
▁필요	-591
사건	-592
▁그는	-593
▁여론조사	-594
▁호	-595
만원을	-596
▁사건을	-597
인지	-598
문에	-599
▁것을	-600
지방	-601
▁승	-602
씨에	-603
▁있던	-604
전화	-605
▁법률	-606
▁인근	-607
중앙	-608
료를	-609
▁드러	-610
▁엄	-611
▁장관	-612
▁작	-613
▁현재	-614
로부터	-615
왔다	-616
▁아파트	-617
물을	-618
▁고려	-619
▁주자	-620
▁않고	-621
유예	-622
▁사진	-623
약식	-624
추행	-625
▁문제	-626
▁이유로	-627
▁체포	-628
▁보이콧	-629
▁서약식	-630
▁설치	-631
인은	-632
▁죄	-633
▁딸	-634
기관	-635
되지	-636
펀드	-637
▁일부	-638
▁하고	-639
▁한편	-640
▁받았다	-641
▁입건	-642
▁등으로	-643
▁최근	-644
TV	-645
구속	-646
▁하지만	-647
했지만	-648
▁어떤	-649
▁조직	-650
▁서울중앙	-651
촬영	-652
▁먹	-653
▁압수	-654
▁씨가	-655
▁구속영장을	-656
▁송치	-657
▁각	-658
▁공무	-659
▁상당	-660
▁가족	-661
▁권	-662
▁라	-663
▁있었	-664
▁알게	-665
▁주장했다	-666
보자	-667
▁이상	-668
주자	-669
▁것이	-670
▁적용	-671
▁조사됐다	-672
▁집행유예	-673
착취	-674
했던	-675
▁많	-676
▁특정	-677
서를	-678
▁고소	-679
▁13	-680
성이	-681
▁돌	-682
▁몰	-683
▁숨진	-684
▁검거	-685
▁성폭행	-686
▁사회	-687
▁사실을	-688
렸다	-689
위원회	-690
이라며	-691
▁영상	-692
▁상대로	-693
부장판사	-694
▁벌금	-695
▁관련해	-696
▁사이	-697
▁휴대전화	-698
사가	-699
보호	-700
▁안해	-701
기도	-702
▁이들은	-703
▁허위	-704
▁다시	-705
지지자	-706
처벌	-707
했다는	-708
확장성	-709
▁보인	-710
▁여부	-711
▁동아	-712
▁부장	-713
▁이준	-714
▁것은	-715
▁27	-716
▁위한	-717
▁잘	-718
▁철	-719
정을	-720
정치	-721
선거	-722
금을	-723
위원장	-724
▁지적	-725
▁50	-726
▁사기	-727
프로	-728
자가	-729
하면	-730
▁글	-731
▁숨지	-732
▁이준석	-733
이나	-734
▁조치	-735
▁질	-736
스크	-737
▁측은	-738
학교	-739
▁태	-740
사의	-741
▁보호	-742
▁된	-743
▁타	-744
사실	-745
자를	-746
▁대상	-747
피고인	-748
월부터	-749
▁받는다	-750
리고	-751
▁성폭력	-752
▁14	-753
▁씨의	-754
▁평	-755
▁순간	-756
▁양형	-757
수색	-758
▁시신	-759
▁살해한	-760
▁16	-761
▁선관	-762
▁복	-763
정보	-764
공작	-765
학생	-766
▁직접	-767
▁아동학대	-768
장의	-769
▁정도	-770
▁협박	-771
▁얼	-772
▁온	-773
▁마약	-774
▁열린	-775
▁200	-776
▁확보	-777
▁코로나	-778
▁중인	-779
하라	-780
▁제주	-781
명의	-782
▁업무	-783
정치공작	-784
▁데	-785
기소	-786
▁25	-787
장실	-788
주당	-789
▁언급	-790
▁S	-791
▁판결	-792
▁막	-793
▁사용	-794
▁남성이	-795
홍원	-796
▁정홍원	-797
▁선관위원장	-798
▁보인다	-799
▁확인됐다	-800
▁출석	-801
▁있다고	-802
▁겪	-803
▁불러	-804
▁제기	-805
▁출동	-806
머니	-807
▁재판부	-808
▁신고를	-809
주빈	-810
▁17	-811
▁18	-812
▁생각	-813
▁계획	-814
▁청구	-815
▁압수수색	-816
▁전날	-817
▁경선	-818
하던	-819
▁공소	-820
▁숨지게	-821
청소년	-822
▁규	-823
으면	-824
단독	-825
▁대라	-826
▁취지	-827
▁강제	-828
▁중이다	-829
▁공무원	-830
30	-831
운전	-832
▁한국	-833
▁맞	-834
▁끝	-835
▁택배	-836
▁촬영	-837
▁검찰이	-838
문을	-839
▁28	-840
억원	-841
▁음주	-842
▁국정조사해야	-843
▁있어	-844
▁이뤄	-845
▁돈을	-846
에서는	-847
▁새	-848
▁세력	-849
▁카	-850
서도	-851
▁다만	-852
제보자	-853
▁법무부	-854
▁머	-855
▁잡아	-856
▁김웅	-857
사방	-858
▁방침	-859
▁접수	-860
▁저지	-861
▁2018	-862
▁토	-863
▁소속	-864
▁펀드	-865
리는	-866
책임	-867
▁남편	-868
▁대화	-869
▁예정이다	-870
와대	-871
▁이번	-872
▁반성	-873
▁판매	-874
▁폐	-875
▁찾아	-876
▁밝혀지는	-877
▁조주빈	-878
의를	-879
인을	-880
▁세력인지	-881
▁나온	-882
▁DB	-883
▁않기로	-884
닷컴	-885
▁혐의도	-886
▁24	-887
다가	-888
(1	-889
▁동아닷컴	-890
▁행위	-891
▁포함	-892
▁면	-893
▁학교	-894
▁분석	-895
이낙연	-896
▁대해서는	-897
피해자	-898
▁침	-899
▁식	-900
▁편	-901
▁추진	-902
▁높	-903
라며	-904
아동	-905
▁다음	-906
▁정보	-907
▁모습	-908
▁전화	-909
이고	-910
▁뉴스	-911
검찰	-912
▁씨를	-913
’...	-914
▁번	-915
▁무죄	-916
▁수사에	-917
▁것이다	-918
▁활	-919
성을	-920
▁학생	-921
▁걸쳐	-922
▁여러	-923
▁유포	-924
▁답	-925
▁빠	-926
▁전했다	-927
분을	-928
▁22	-929
도에	-930
▁정확	-931
▁파악됐다	-932
▁등이	-933
지자	-934
▁의견	-935
▁2019	-936
▁도주	-937
▁기각	-938
▁논란	-939
▁선고받았다	-940
▁청와대	-941
살인	-942
▁기소됐다	-943
▁힘	-944
NS	-945
▁넘겨졌다	-946
▁드러났다	-947
형사	-948
▁하지	-949
▁환	-950
▁경찰관	-951
▁인터	-952
▁투자	-953
.1	-954
들과	-955
▁정신	-956
▁우려	-957
▁때문에	-958
센터	-959
인단	-960
▁마스크	-961
▁100	-962
▁울	-963
방에	-964
운데	-965
▁23	-966
▁불구속	-967
▁착	-968
이라는	-969
▁향	-970
▁개인	-971
검사	-972
▁의심	-973
▁쓰	-974
훼손	-975
▁법정	-976
▁아내	-977
구의	-978
하자	-979
▁구형	-980
▁제공	-981
▁국회	-982
▁그러면서	-983
▁극	-984
해진	-985
남부	-986
재판	-987
▁얼굴	-988
▁넘겨진	-989
▁성착취	-990
텔레	-991
▁아닌	-992
▁흉기로	-993
▁가운데	-994
▁은	-995
▁차례	-996
▁버	-997
▁백	-998
▁동안	-999
분쯤	-1000
▁어린	-1001
▁슈	-1002
받은	-1003
했으나	-1004
(6	-1005
▁책임	-1006
▁자신이	-1007
▁게시	-1008
▁시작	-1009
▁어렵	-1010
▁덧	-1011
텔레그램	-1012
▁됐다	-1013
▁제작	-1014
▁어려	-1015
되고	-1016
명은	-1017
이었다	-1018
▁슈퍼	-1019
▁21	-1020
▁등은	-1021
▁도로	-1022
▁수원	-1023
▁검토	-1024
장에	-1025
▁빌	-1026
년간	-1027
▁덧붙	-1028
▁없이	-1029
하겠다	-1030
노조	-1031
▁▲	-1032
▁없었다	-1033
▁저지른	-1034
▁주민	-1035
▁정확한	-1036
▁붙잡혔다	-1037
▁잡아라	-1038
▁크	-1039
위크	-1040
▁26	-1041
주자들	-1042
‘1	-1043
▁사활	-1044
▁표심	-1045
선거인단	-1046
▁슈퍼위크	-1047
”...‘1	-1048
▁관리	-1049
▁성범죄	-1050
▁덧붙였다	-1051
▁文	-1052
▁프로	-1053
▁줄	-1054
통령	-1055
▁폭	-1056
동을	-1057
심을	-1058
차를	-1059
▁판단했다	-1060
▁사실이	-1061
으로부터	-1062
▁상해	-1063
▁정치	-1064
▁횡	-1065
▁있다는	-1066
▁2017	-1067
▁신상	-1068
6)	-1069
▁날	-1070
▁죽	-1071
페이	-1072
구를	-1073
▁피해자가	-1074
▁수차례	-1075
▁‘1	-1076
▁심리	-1077
▁그러나	-1078
5)	-1079
라인	-1080
▁경찰청	-1081
모씨	-1082
▁사건이	-1083
▁경위	-1084
▁계속	-1085
일부터	-1086
▁추정	-1087
▁확산	-1088
기에	-1089
리점	-1090
▁저질	-1091
는지	-1092
▁지시	-1093
▁항소심	-1094
▁연락	-1095
▁치료	-1096
행위	-1097
▁텔레그램	-1098
▁시민	-1099
▁좋	-1100
▁뚜	-1101
처럼	-1102
▁않았	-1103
▁차관	-1104
▁별	-1105
▁근무	-1106
▁의혹을	-1107
▁특수	-1108
▁긴	-1109
▁성추행	-1110
하거나	-1111
지고	-1112
▁변호인은	-1113
▁아버	-1114
▁폭력	-1115
춘재	-1116
▁부분	-1117
지방경찰청	-1118
2)	-1119
▁명령	-1120
▁민주당	-1121
검증	-1122
냈다	-1123
▁Δ	-1124
월까지	-1125
▁아무	-1126
▁뚜렷	-1127
력이	-1128
▁않아	-1129
법상	-1130
▁난	-1131
▁사주	-1132
▁위기	-1133
▁정황	-1134
▁택시	-1135
▁큰	-1136
보다	-1137
▁택배노조	-1138
▁점을	-1139
▁사건은	-1140
▁폭행한	-1141
▁피해자의	-1142
▁휘	-1143
후보	-1144
.4	-1145
.8	-1146
▁곳	-1147
단체	-1148
▁조사에서	-1149
▁부모	-1150
▁출동한	-1151
▁밀	-1152
▁시간	-1153
▁메	-1154
권이	-1155
8)	-1156
▁금융	-1157
▁SNS	-1158
▁가장	-1159
▁공동	-1160
▁한두	-1161
니다	-1162
▁되	-1163
▁방침이다	-1164
vs	-1165
▁vs	-1166
▁본부장	-1167
▁여자	-1168
▁후보	-1169
▁강조	-1170
주시	-1171
▁몸	-1172
▁피해를	-1173
▁선수	-1174
▁한두번	-1175
▁볼	-1176
겠다고	-1177
▁위기감	-1178
▁뚜렷해진	-1179
▁맡	-1180
연승	-1181
▁지인	-1182
▁추적	-1183
▁구도에	-1184
▁피해자를	-1185
▁겪나	-1186
▁화성	-1187
▁홍	-1188
▁대전	-1189
▁특별	-1190
▁대구	-1191
공개	-1192
식을	-1193
원이	-1194
▁조사하고	-1195
해달	-1196
업체	-1197
검증단	-1198
후보검증단	-1199
▁서울중앙지법	-1200
▁산	-1201
7)	-1202
▁폐쇄	-1203
▁올해	-1204
▁대법원	-1205
▁이용해	-1206
▁변경	-1207
▁잘못	-1208
▁신체	-1209
▁종합	-1210
▁주변	-1211
▁옮	-1212
▁국내	-1213
▁김씨는	-1214
▁커	-1215
▁결국	-1216
▁전북	-1217
하기도	-1218
▁욕	-1219
디지	-1220
▁달아	-1221
▁발언	-1222
바이	-1223
▁교육	-1224
▁창	-1225
▁전문	-1226
사에	-1227
▁적발	-1228
▁않는다	-1229
▁호소	-1230
형사부	-1231
21	-1232
▁입법	-1233
▁실형을	-1234
위해	-1235
▁합의	-1236
자의	-1237
▁흉기를	-1238
질심	-1239
▁지역	-1240
유정	-1241
도를	-1242
원에	-1243
▁또는	-1244
▁이유를	-1245
▁나오	-1246
연구	-1247
▁입장	-1248
▁어머니	-1249
▁빼	-1250
디지털	-1251
▁29	-1252
▁판사는	-1253
▁발부	-1254
▁했	-1255
시했다	-1256
CC	-1257
▁실제	-1258
▁60	-1259
▁기간	-1260
▁알고	-1261
▁징계	-1262
▁지적했다	-1263
▁긴급	-1264
대가	-1265
▁대통령	-1266
▁...	-1267
▁사건의	-1268
머스	-1269
▁이춘재	-1270
▁너	-1271
▁응	-1272
옵티	-1273
회로	-1274
▁대응	-1275
▁나섰	-1276
기일	-1277
▁삼	-1278
▁유족	-1279
▁한달	-1280
▁확정	-1281
▁아니라	-1282
옵티머스	-1283
▁법원에	-1284
방해	-1285
▁신설	-1286
들에	-1287
▁작성	-1288
합의	-1289
▁생활	-1290
질이	-1291
▁공범	-1292
▁“(	-1293
사고	-1294
지원	-1295
▁고려해	-1296
▁훔	-1297
▁내부	-1298
▁사의	-1299
▁시도	-1300
4)	-1301
시께	-1302
▁이낙연	-1303
아이	-1304
▁정부	-1305
▁음주운전	-1306
▁전달	-1307
치사	-1308
▁논의	-1309
▁인터넷	-1310
▁발견됐다	-1311
▁항소심에서	-1312
▁나타	-1313
9)	-1314
▁갈	-1315
장과	-1316
▁라임	-1317
▁있고	-1318
겼다	-1319
▁소환	-1320
▁초등	-1321
▁술을	-1322
10	-1323
▁실종	-1324
▁석	-1325
▁고유정	-1326
▁증인	-1327
▁경위를	-1328
▁상태로	-1329
3)	-1330
▁뇌	-1331
▁늘	-1332
▁전자	-1333
▁취재	-1334
▁사무	-1335
중처벌	-1336
▁어린이	-1337
▁치료를	-1338
성년	-1339
▁감염	-1340
심은	-1341
▁이같	-1342
▁관계자	-1343
▁사과	-1344
▁저질렀	-1345
▁주거	-1346
장에서	-1347
▁유기	-1348
▁유죄	-1349
▁찔	-1350
▁횡령	-1351
▁올라	-1352
▁처벌을	-1353
장실질심	-1354
▁왜	-1355
▁국가	-1356
▁‘20	-1357
▁나온다	-1358
▁강조했다	-1359
▁골	-1360
업을	-1361
▁재판을	-1362
▁공격	-1363
▁귀	-1364
▁CC	-1365
▁강화	-1366
▁가해자	-1367
▁54	-1368
▁내려	-1369
▁바로	-1370
▁친구	-1371
느냐	-1372
▁자택	-1373
▁서울중앙지검	-1374
었던	-1375
▁각각	-1376
▁시대	-1377
▁선고했다고	-1378
▁사퇴	-1379
▁용의자	-1380
▁악	-1381
품을	-1382
징역	-1383
명에	-1384
라도	-1385
▁말을	-1386
▁만에	-1387
▁지지자	-1388
▁서울시	-1389
고법	-1390
▁매우	-1391
▁길	-1392
▁2016	-1393
해서	-1394
▁의뢰	-1395
▁이런	-1396
동의	-1397
▁선택	-1398
▁잠재	-1399
▁특히	-1400
▁발생한	-1401
인의	-1402
하기로	-1403
하도록	-1404
▁당일	-1405
▁만나	-1406
▁무기	-1407
▁폐쇄회로	-1408
16	-1409
번방	-1410
출신	-1411
▁이미	-1412
▁CCTV	-1413
▁내정	-1414
▁구속기소	-1415
1%	-1416
능의	-1417
▁담당	-1418
▁靑	-1419
매매	-1420
▁변호사	-1421
.4%	-1422
▁고의	-1423
▁구체	-1424
▁여부를	-1425
je	-1426
정권이	-1427
▁요청했다	-1428
▁보내	-1429
기자	-1430
개편	-1431
▁방법	-1432
▁불러온	-1433
▁자백	-1434
▁무법	-1435
▁영상을	-1436
도로	-1437
보전	-1438
▁만능의	-1439
▁잠재력	-1440
▁회수한다	-1441
▁회수한다지지층	-1442
▁혈	-1443
리가	-1444
▁인해	-1445
▁처음	-1446
판사는	-1447
▁병원으로	-1448
력을	-1449
▁2020	-1450
갔다	-1451
교육	-1452
▁만들	-1453
▁시신을	-1454
▁조직개편	-1455
▁중국	-1456
피싱	-1457
▁고통	-1458
▁소재	-1459
▁한달뒤	-1460
▁신설위해	-1461
▁표명	-1462
연금	-1463
▁강남	-1464
관리	-1465
▁내용을	-1466
▁진술을	-1467
▁황	-1468
▁받았	-1469
▁없어	-1470
심의	-1471
▁청원	-1472
처를	-1473
▁여성을	-1474
▁가능성이	-1475
과학	-1476
신고	-1477
▁극단	-1478
▁너무	-1479
▁술에	-1480
권을	-1481
지가	-1482
▁인사	-1483
▁옵티머스	-1484
.81%	-1485
▁야	-1486
▁54.81%	-1487
움을	-1488
▁나섰다	-1489
▁혼	-1490
도소	-1491
▁미성년	-1492
▁있을	-1493
▁철회	-1494
범행	-1495
0)	-1496
대를	-1497
▁어렵다	-1498
▁취지로	-1499
▁두고	-1500
▁로	-1501
▁언론	-1502
당시	-1503
본부	-1504
본선	-1505
쟁력	-1506
▁거래	-1507
▁발견된	-1508
▁완	-1509
원의	-1510
▁지급	-1511
▁죄질이	-1512
▁0	-1513
▁마련	-1514
▁이르	-1515
▁이와	-1516
박사방	-1517
▁제대로	-1518
한다는	-1519
▁사건에	-1520
▁부장판사는	-1521
두순	-1522
▁훼손	-1523
▁혐의에	-1524
상해	-1525
▁野	-1526
▁떨	-1527
▁촉	-1528
위반	-1529
▁거짓	-1530
▁원을	-1531
▁봤	-1532
▁챙	-1533
기가	-1534
▁싶	-1535
회를	-1536
▁자녀	-1537
▁온라인	-1538
.2	-1539
▁전주	-1540
▁앞에서	-1541
입한	-1542
▁모텔	-1543
▁소방	-1544
▁경찰의	-1545
▁뿐	-1546
▁지원	-1547
▁형사합의	-1548
),	-1549
▁음란	-1550
▁장애	-1551
▁북	-1552
▁의해	-1553
▁디지털	-1554
경쟁력	-1555
본선경쟁력	-1556
▁여론조사로	-1557
군은	-1558
▁대부	-1559
▁세종	-1560
하다고	-1561
류로	-1562
자로	-1563
정에	-1564
▁서초	-1565
▁역대	-1566
▁사례	-1567
▁차량을	-1568
기간	-1569
례법	-1570
▁단속	-1571
▁회장	-1572
경찰서에	-1573
▁억	-1574
▁미국	-1575
▁현금	-1576
▁글을	-1577
▁넘어	-1578
▁농	-1579
했을	-1580
▁사건과	-1581
대는	-1582
▁방송	-1583
▁위험	-1584
▁이들	-1585
▁토대로	-1586
▁찍	-1587
▁이동	-1588
▁잔	-1589
공판	-1590
인천	-1591
▁의원은	-1592
시다	-1593
억원을	-1594
지방법원	-1595
▁격	-1596
▁업체	-1597
▁의붓	-1598
▁상당의	-1599
▁부부	-1600
▁위치	-1601
스피싱	-1602
했으며	-1603
▁탄	-1604
▁출소	-1605
시설	-1606
▁역시	-1607
▁변호사는	-1608
▁신고했다	-1609
12	-1610
▁급	-1611
형이	-1612
▁진술한	-1613
피해	-1614
▁수색	-1615
▁못했다	-1616
▁...‘	-1617
▁수법	-1618
▁대해서도	-1619
▁준비	-1620
▁친모	-1621
코로나	-1622
▁만류로	-1623
전자	-1624
면서도	-1625
▁천	-1626
▁부검	-1627
▁못한	-1628
▁있었던	-1629
세금	-1630
▁불가	-1631
▁타고	-1632
사와	-1633
최대	-1634
받아	-1635
▁판시했다	-1636
▁현장에서	-1637
러스	-1638
▁과거	-1639
▁아니다	-1640
▁갖	-1641
▁가해	-1642
▁결심	-1643
▁행정	-1644
계에	-1645
▁착수	-1646
▁낸	-1647
▁울산	-1648
에서도	-1649
신청	-1650
▁집에	-1651
▁취업	-1652
▁탈	-1653
▁거주	-1654
▁옮겨	-1655
▁유튜	-1656
▁부장판사	-1657
년에	-1658
▁검찰의	-1659
▁영장	-1660
▁자신을	-1661
▁서울남부	-1662
▁납	-1663
내년	-1664
▁진술했다	-1665
13	-1666
▁애	-1667
▁모든	-1668
▁직후	-1669
▁오는	-1670
▁적자	-1671
결과	-1672
▁법원은	-1673
▁건물	-1674
겠다는	-1675
▁수사가	-1676
기는	-1677
땜질	-1678
▁먹어	-1679
▁명예	-1680
▁최종	-1681
▁땜질	-1682
대에	-1683
▁라운	-1684
보전액	-1685
▁아이를	-1686
▁역대최대	-1687
▁공무원연금	-1688
▁적자보전액	-1689
▁될	-1690
▁돌아	-1691
▁눈	-1692
▁경남	-1693
▁만큼	-1694
▁가담	-1695
▁때문	-1696
▁의한	-1697
쇄살인	-1698
▁성매매	-1699
▁못하는	-1700
어진	-1701
▁논란이	-1702
방을	-1703
▁않다	-1704
▁대화방에	-1705
▁법조	-1706
▁이하	-1707
▁자료	-1708
▁27.4%	-1709
당국	-1710
대세	-1711
▁밝히	-1712
▁아직	-1713
대세론	-1714
페이지	-1715
원은	-1716
회에	-1717
▁무기징역	-1718
▁무죄를	-1719
▁있도록	-1720
▁강간	-1721
▁부정	-1722
▁부당	-1723
▁현행	-1724
부지법	-1725
▁강제추행	-1726
수처	-1727
▁들어가	-1728
▁묻	-1729
대한	-1730
▁주차	-1731
▁청주	-1732
▁동생	-1733
▁자체	-1734
▁욕설	-1735
▁해외	-1736
11	-1737
▁퇴	-1738
울러	-1739
▁도착	-1740
▁상습	-1741
▁대리점	-1742
▁떠	-1743
19)	-1744
개월을	-1745
▁지나	-1746
▁#	-1747
▁범행에	-1748
▁명의	-1749
▁이사	-1750
친구	-1751
▁남자	-1752
▁아울러	-1753
▁K	-1754
동산	-1755
▁거부	-1756
▁교사	-1757
▁느	-1758
▁목격	-1759
▁변호인	-1760
▁어린이집	-1761
드서	-1762
음에도	-1763
일까지	-1764
▁상태다	-1765
▁또한	-1766
▁신분	-1767
봅시다	-1768
▁2015	-1769
▁밖	-1770
생활	-1771
▁강력	-1772
▁마음	-1773
▁사체	-1774
▁먹어봅시다	-1775
▁택배노조원	-1776
▁팔	-1777
려고	-1778
▁가로	-1779
▁우리	-1780
▁투약	-1781
▁라운드서	-1782
15	-1783
내서	-1784
사주	-1785
▁일반	-1786
분경	-1787
▁방치	-1788
▁사태	-1789
▁보도	-1790
▁적극	-1791
▁상태에서	-1792
▁놓	-1793
▁마시	-1794
제한	-1795
치고	-1796
▁대고	-1797
▁지속	-1798
부모	-1799
집행	-1800
▁기관	-1801
▁진행했다	-1802
▁개인정보	-1803
사기	-1804
이던	-1805
▁대상으로	-1806
▁둔	-1807
▁31	-1808
원에서	-1809
▁선택을	-1810
▁구형했다	-1811
▁통화	-1812
▁공소사실	-1813
명과	-1814
▁같다	-1815
▁증언	-1816
▁행사	-1817
국기	-1818
다른	-1819
▁전남	-1820
▁형을	-1821
▁청소년	-1822
▁숙	-1823
▁힘내서	-1824
▁처리	-1825
NA	-1826
▁사이트	-1827
메라	-1828
광주	-1829
▁들이	-1830
▁사무실	-1831
▁사퇴하라	-1832
▁이른	-1833
소를	-1834
▁기록	-1835
▁비판	-1836
▁집중	-1837
비를	-1838
▁같이	-1839
▁머리	-1840
▁사안	-1841
▁존	-1842
문란	-1843
▁사람이	-1844
▁집에서	-1845
▁신청했다	-1846
▁새벽	-1847
▁아들	-1848
국기문란	-1849
▁보이스피싱	-1850
▁위협	-1851
▁혐의가	-1852
▁동영	-1853
▁경기도	-1854
됐고	-1855
▁입양	-1856
▁돼	-1857
교통	-1858
미수	-1859
▁이송	-1860
▁제출했다	-1861
▁듣	-1862
선을	-1863
▁신종	-1864
▁어느	-1865
정이	-1866
▁기준	-1867
비스	-1868
심과	-1869
▁백신	-1870
개월에	-1871
▁운영자	-1872
▁P	-1873
가지	-1874
▁취재진	-1875
이를	-1876
▁평소	-1877
익을	-1878
인가	-1879
▁가능성	-1880
▁조두순	-1881
▁박사방	-1882
▁출입	-1883
▁입장을	-1884
50	-1885
으니	-1886
관한	-1887
제를	-1888
▁불을	-1889
▁출신	-1890
▁재판부에	-1891
표명	-1892
.19	-1893
▁공격하라	-1894
개를	-1895
▁것처럼	-1896
▁현장에	-1897
번호	-1898
▁다수	-1899
사진	-1900
▁즉	-1901
▁발표	-1902
▁”	-1903
▁국립	-1904
▁졸	-1905
▁트	-1906
되면	-1907
무리	-1908
었고	-1909
▁많은	-1910
▁사업	-1911
▁충분	-1912
▁취소	-1913
범죄의	-1914
▁나왔다	-1915
▁논의중	-1916
▁사의표명	-1917
▁조치를	-1918
과학수사	-1919
부경찰서는	-1920
양을	-1921
▁특례법	-1922
▁당한	-1923
▁활동	-1924
▁모습을	-1925
피고인은	-1926
▁계좌	-1927
▁받을	-1928
▁아버지	-1929
▁서울경찰청	-1930
25	-1931
다툼	-1932
▁열고	-1933
▁없고	-1934
▁전혀	-1935
운용	-1936
치를	-1937
▁개정	-1938
▁김태	-1939
부장검사	-1940
▁수사기관	-1941
▁프로그램	-1942
장애	-1943
▁도박	-1944
▁절차	-1945
▁교통	-1946
▁소송	-1947
▁엄벌	-1948
건을	-1949
▁119	-1950
스로	-1951
▁김모	-1952
견을	-1953
어난	-1954
유를	-1955
▁처분	-1956
▁안전	-1957
▁밤	-1958
불어	-1959
▁주택	-1960
▁추행	-1961
▁선고받은	-1962
▁선고됐다	-1963
쳤다	-1964
▁구성	-1965
▁기억	-1966
과학수사연구	-1967
▁참여	-1968
리에서	-1969
▁씨에게	-1970
장실질심사	-1971
▁숨졌다	-1972
두고	-1973
르고	-1974
위는	-1975
목으로	-1976
가족	-1977
▁재판에서	-1978
▁승용	-1979
▁의붓아	-1980
▁곧	-1981
검찰청	-1982
▁적이	-1983
관계를	-1984
더라도	-1985
▁폭행을	-1986
▁유리	-1987
군의	-1988
▁찔러	-1989
▁이름	-1990
행위를	-1991
▁없다고	-1992
”,	-1993
▁유출	-1994
▁이같은	-1995
.5	-1996
▁과반	-1997
▁선거	-1998
하다는	-1999
주의	-2000
▁질문에	-2001
▁교수는	-2002
▁부동산	-2003
▁1000	-2004
금지	-2005
동안	-2006
입해	-2007
▁여성이	-2008
▁공모	-2009
▁전국	-2010
▁낮	-2011
27	-2012
▁잃	-2013
충북	-2014
▁회사	-2015
▁국민청	-2016
▁전력이	-2017
통신	-2018
▁경북	-2019
▁사전	-2020
▁씨와	-2021
▁유사	-2022
▁대부분	-2023
▁의혹이	-2024
▁인정하고	-2025
▁먼	-2026
양이	-2027
▁구매	-2028
▁성적	-2029
명에게	-2030
거래	-2031
▁사진을	-2032
▁구속됐다	-2033
▁위조	-2034
년부터	-2035
▁대표는	-2036
18	-2037
▁경비	-2038
▁행위를	-2039
▁나타났다	-2040
시에	-2041
▁감찰	-2042
▁대학	-2043
▁외국	-2044
▁촉구	-2045
▁더불어	-2046
▁정치권	-2047
당한	-2048
보고	-2049
였던	-2050
임을	-2051
▁보여	-2052
▁이모	-2053
▁계획이다	-2054
▁때려	-2055
▁밝힌	-2056
▁중개	-2057
▁주거지	-2058
안을	-2059
▁국립과학수사연구	-2060
안전	-2061
양의	-2062
▁압승	-2063
▁의사	-2064
▁좋지	-2065
명으로	-2066
▁유통	-2067
받았다	-2068
.19%	-2069
충북서도	-2070
▁28.19%	-2071
시장	-2072
▁지목	-2073
▁방해	-2074
▁유력	-2075
▁추가로	-2076
단을	-2077
어나	-2078
▁수감	-2079
▁내용이	-2080
▁운전자	-2081
▁-	-2082
세훈	-2083
▁대마	-2084
▁방식	-2085
민주당	-2086
▁심리로	-2087
▁명령했다	-2088
감을	-2089
▁들고	-2090
▁감염증	-2091
▁경찰과	-2092
▁갑	-2093
▁몰래	-2094
▁범죄를	-2095
▁방문	-2096
▁수도	-2097
▁'	-2098
▁개편	-2099
▁하나	-2100
소에서	-2101
▁저질렀다	-2102
부를	-2103
▁받지	-2104
▁유지	-2105
구에	-2106
변호	-2107
화폐	-2108
바이러스	-2109
▁법정에서	-2110
▁대출	-2111
▁입은	-2112
한다고	-2113
▁했다는	-2114
▁부인했다	-2115
▁풀	-2116
인멸	-2117
▁봤다	-2118
▁여아	-2119
▁70	-2120
▁먼저	-2121
▁공수처	-2122
수한	-2123
차례에	-2124
관찰	-2125
르는	-2126
▁근거	-2127
▁인정했다	-2128
렇게	-2129
▁크게	-2130
머지	-2131
면허	-2132
▁감정	-2133
▁오세훈	-2134
▁깨	-2135
▁녹	-2136
부가	-2137
▁인물	-2138
▁일당	-2139
범죄가	-2140
▁달라	-2141
▁억울	-2142
▁조국	-2143
▁화장실	-2144
▁피해자에게	-2145
▁마스크를	-2146
교사	-2147
▁제한	-2148
▁초등학교	-2149
이며	-2150
▁구조	-2151
▁그런	-2152
▁신고가	-2153
기록	-2154
이는	-2155
▁나서	-2156
▁나선	-2157
▁조작	-2158
▁지하	-2159
실에서	-2160
▁아무도	-2161
▁공판에서	-2162
▁n	-2163
다만	-2164
▁시행	-2165
▁결과를	-2166
▁대기	-2167
▁의견을	-2168
▁책임을	-2169
40	-2170
▁얻	-2171
늦게	-2172
▁경제	-2173
▁충격	-2174
▁충북	-2175
▁있지만	-2176
▁피해자와	-2177
▁삭	-2178
당내	-2179
제주	-2180
시간의	-2181
(7	-2182
▁나와	-2183
▁DNA	-2184
▁자료를	-2185
▁조사할	-2186
▁했다고	-2187
▁취해	-2188
▁법원이	-2189
▁코로나바이러스	-2190
▁덜	-2191
▁독	-2192
인과	-2193
직원	-2194
▁경찰서	-2195
가를	-2196
했는데	-2197
’,	-2198
▁【	-2199
서관	-2200
술을	-2201
▁손해	-2202
▁문자	-2203
▁형량	-2204
▁112	-2205
▁머리를	-2206
▁안에서	-2207
▁벗	-2208
▁옆	-2209
코올	-2210
▁것에	-2211
▁취한	-2212
점에서	-2213
▁내용의	-2214
▁흔	-2215
수를	-2216
▁보면	-2217
▁상담	-2218
▁정상	-2219
▁통보	-2220
▁해경	-2221
하지만	-2222
▁못하고	-2223
▁선고한	-2224
▁발생했다	-2225
▁축	-2226
▁비춰	-2227
▁행동	-2228
▁입건해	-2229
▁괴	-2230
▁동의	-2231
▁만족	-2232
▁주장을	-2233
정한	-2234
▁벌인	-2235
경제	-2236
달라	-2237
보수	-2238
지도	-2239
▁상황을	-2240
▁수사팀	-2241
▁증거를	-2242
▁반성하고	-2243
▁블	-2244
떻게	-2245
시쯤	-2246
▁만취	-2247
▁한다는	-2248
▁단체	-2249
▁반복	-2250
▁수십	-2251
▁쓰러	-2252
▁마약류	-2253
▁아파트에서	-2254
사법	-2255
▁위원	-2256
▁의무	-2257
▁것인가	-2258
▁부탁	-2259
범으로	-2260
▁목적으로	-2261
▁서울고법	-2262
자료	-2263
▁전체	-2264
▁막으면	-2265
▁스스로	-2266
▁조씨는	-2267
▁피고인의	-2268
가기	-2269
자산	-2270
정부	-2271
▁극단적	-2272
▁역선택	-2273
▁정인이	-2274
▁동료	-2275
▁예방	-2276
▁측이	-2277
▁회장은	-2278
▁3000	-2279
▁암	-2280
리에	-2281
▁일이	-2282
복지법	-2283
▁미성년자	-2284
▁동기	-2285
▁출국	-2286
▁보이는	-2287
범죄수사	-2288
▁송치했다	-2289
km	-2290
린다	-2291
부산	-2292
전담	-2293
▁그대로	-2294
▁이달	-2295
수원	-2296
▁이야	-2297
▁주먹	-2298
▁착취	-2299
▁유포한	-2300
▁혐의는	-2301
하겠다고	-2302
▁확인하고	-2303
▁휴대전화를	-2304
▁나머지	-2305
리지	-2306
심이	-2307
▁자금	-2308
▁던	-2309
둘러	-2310
▁담긴	-2311
▁역할	-2312
강간	-2313
▁가정	-2314
지역	-2315
▁80	-2316
▁따른	-2317
▁마포	-2318
▁회원	-2319
▁피고인이	-2320
▁브	-2321
유기	-2322
▁접근	-2323
▁정신적	-2324
▁받아들이	-2325
▁확인했다	-2326
▁식당	-2327
습니다	-2328
피고인이	-2329
▁옥	-2330
▁핵	-2331
지에	-2332
▁입증	-2333
▁기자회	-2334
▁누구를	-2335
위에	-2336
▁하루	-2337
BS	-2338
▁희	-2339
적이	-2340
점을	-2341
체포	-2342
▁우려가	-2343
▁성폭행한	-2344
▁화가	-2345
▁2021	-2346
과의	-2347
회의	-2348
▁달리	-2349
▁많이	-2350
▁회복	-2351
▁얼굴을	-2352
▁경기남부	-2353
▁사건으로	-2354
과수	-2355
▁계약	-2356
▁자유	-2357
▁중개보수	-2358
현재	-2359
▁공직	-2360
▁금액	-2361
▁지금	-2362
없이	-2363
▁심각	-2364
▁의료	-2365
▁등에서	-2366
▁염	-2367
니티	-2368
▁대책	-2369
▁철저	-2370
▁넣	-2371
시도	-2372
▁절도	-2373
▁붙잡아	-2374
▁전화를	-2375
▁정보를	-2376
▁종로	-2377
인으로	-2378
▁끊	-2379
양대	-2380
뮤니티	-2381
심으로	-2382
▁상해를	-2383
▁없다는	-2384
범죄가중처벌	-2385
▁베	-2386
▁익	-2387
발찌	-2388
▁강도	-2389
▁비롯	-2390
▁수준	-2391
▁취지의	-2392
▁신상공개	-2393
▁이들이	-2394
▁옷	-2395
▁끝에	-2396
▁대신	-2397
▁문제가	-2398
▁인천시	-2399
가로	-2400
부에	-2401
▁메시	-2402
▁빼앗	-2403
▁진실	-2404
▁필요하다	-2405
가는	-2406
▁이는	-2407
▁인권	-2408
▁인한	-2409
▁알려진	-2410
▁어떻게	-2411
▁강요	-2412
▁달아난	-2413
장에게	-2414
▁처분을	-2415
▁바로가기	-2416
▁택시기사	-2417
기자페이지	-2418
감독	-2419
복지	-2420
▁배우	-2421
▁휘두	-2422
영장실질심사	-2423
▁그의	-2424
▁왜곡	-2425
▁집을	-2426
▁구속된	-2427
▁법조계에	-2428
소에	-2429
▁중요	-2430
▁채용	-2431
▁마무리	-2432
▁적용해	-2433
주는	-2434
▁했고	-2435
▁버스	-2436
▁이전	-2437
▁챙긴	-2438
▁기각했다	-2439
자에	-2440
(20	-2441
▁반박	-2442
에관한	-2443
재판장	-2444
▁내렸다	-2445
▁문제로	-2446
법률	-2447
장으로	-2448
예방	-2449
▁집회	-2450
▁장관은	-2451
▁혐의다	-2452
▁피해자는	-2453
대표	-2454
인데	-2455
장치	-2456
▁이수	-2457
▁참작	-2458
대리점	-2459
원으로	-2460
▁고발사주	-2461
▁커뮤니티	-2462
▁무기징역을	-2463
고발	-2464
소송	-2465
음을	-2466
▁감독	-2467
▁답변	-2468
▁사법	-2469
▁심문	-2470
▁받아들	-2471
▁유튜브	-2472
▁촬영한	-2473
▁보호관찰	-2474
▁꾸	-2475
▁않을	-2476
(25)	-2477
▁제출한	-2478
▁품	-2479
들도	-2480
▁감금	-2481
▁일을	-2482
▁금품을	-2483
관이	-2484
국민	-2485
스트	-2486
▁결론	-2487
▁부착	-2488
계를	-2489
▁만난	-2490
▁면허	-2491
▁올린	-2492
▁하며	-2493
▁자택에서	-2494
▁공유	-2495
▁속여	-2496
▁실시	-2497
▁답했다	-2498
▁돌려	-2499
▁보험	-2500
▁혈중	-2501
▁항소를	-2502
▁키	-2503
가량	-2504
업자	-2505
청은	-2506
▁빠른	-2507
▁삼성	-2508
▁손님	-2509
▁이씨는	-2510
▁귀가	-2511
▁운영하는	-2512
▁추정되는	-2513
댓글	-2514
식이	-2515
▁총경	-2516
되면서	-2517
▁명목으로	-2518
▁지방	-2519
▁더불어민주당	-2520
의견	-2521
▁장면	-2522
▁유기한	-2523
▁안에	-2524
▁예상	-2525
▁착용	-2526
▁징역형	-2527
▁긴급체포	-2528
▁육	-2529
건의	-2530
전문	-2531
▁하던	-2532
▁아이의	-2533
▁어려운	-2534
▁취업제한	-2535
치게	-2536
▁강탈	-2537
▁규정	-2538
▁먹자	-2539
▁전문가	-2540
해달라고	-2541
▁구체적인	-2542
▁중이라고	-2543
공무	-2544
박스	-2545
▁거쳐	-2546
▁관여	-2547
▁증거인멸	-2548
▁되지	-2549
▁사유	-2550
▁엄중	-2551
▁직무	-2552
교도소	-2553
▁이른바	-2554
▁폭행해	-2555
▁때문이다	-2556
투자	-2557
▁금지	-2558
▁미수	-2559
▁속도	-2560
▁접촉	-2561
▁주고	-2562
▁이하의	-2563
▁집행유예를	-2564
▁L	-2565
시키	-2566
주민	-2567
▁떨어	-2568
하다가	-2569
▁사회적	-2570
▁필요한	-2571
▁끌	-2572
치는	-2573
▁감사	-2574
▁재산	-2575
상에	-2576
▁je	-2577
▁조정	-2578
▁사망한	-2579
▁재판부가	-2580
군을	-2581
그룹	-2582
▁데려	-2583
▁자세	-2584
▁출산	-2585
아동학대	-2586
▁강탈시도	-2587
▁뇌물	-2588
▁빌라	-2589
▁연구	-2590
▁지휘	-2591
▁최대	-2592
▁도로에서	-2593
이터	-2594
▁충남	-2595
▁찌	-2596
레스	-2597
▁시장	-2598
어서	-2599
▁보석	-2600
▁법정에	-2601
▁정도로	-2602
▁네	-2603
▁딸을	-2604
▁때린	-2605
▁부족	-2606
▁사이버	-2607
▁정했다	-2608
되자	-2609
양은	-2610
자금	-2611
▁건강	-2612
조사를	-2613
▁고통을	-2614
▁아이가	-2615
▁욕설을	-2616
▁살해하고	-2617
▁이들의	-2618
▁봐	-2619
▁월	-2620
죄로	-2621
▁불복	-2622
▁차를	-2623
▁찾아가	-2624
금융	-2625
해달라	-2626
▁구속영장	-2627
바로	-2628
수석	-2629
위가	-2630
▁소지	-2631
▁중앙	-2632
▁폭로	-2633
방에서	-2634
공판에서	-2635
▁인근에서	-2636
▁인천지법	-2637
일을	-2638
▁높은	-2639
▁삭제	-2640
▁재범	-2641
▁말다툼	-2642
▁아들을	-2643
▁장애인	-2644
▁항소했다	-2645
받고	-2646
▁핵심	-2647
▁현직	-2648
사에서	-2649
일보	-2650
전히	-2651
▁스타	-2652
▁영향	-2653
▁유흥	-2654
▁최씨는	-2655
▁현재까지	-2656
▁깊	-2657
▁얘	-2658
▁청탁	-2659
명령	-2660
▁무겁	-2661
▁부사	-2662
▁훔친	-2663
▁업무상	-2664
자산운용	-2665
▁국민청원	-2666
도는	-2667
▁비난	-2668
▁장기	-2669
대에서	-2670
▁게시판	-2671
▁사고를	-2672
▁확인한	-2673
▁c	-2674
▁불거	-2675
▁불가피	-2676
▁있는데	-2677
▁판결을	-2678
▁부인하고	-2679
▁호소했다	-2680
▁구미	-2681
▁기존	-2682
▁재심	-2683
▁충분히	-2684
연제	-2685
▁목소	-2686
▁협조	-2687
▁공동명의	-2688
▁명예훼손	-2689
▁낼	-2690
랐다	-2691
▁왔다	-2692
▁198	-2693
▁앞두고	-2694
▁변경신청	-2695
▁h	-2696
고를	-2697
상태	-2698
시의	-2699
▁보기	-2700
▁있으며	-2701
▁장연제	-2702
▁했지만	-2703
▁jeje	-2704
란다	-2705
부세	-2706
시경	-2707
▁생후	-2708
▁전담	-2709
▁지검	-2710
▁종부세	-2711
▁아동복지법	-2712
in	-2713
▁든	-2714
▁믿	-2715
▁내비	-2716
▁도망	-2717
▁응급	-2718
만원의	-2719
▁집단	-2720
▁했던	-2721
실에	-2722
희롱	-2723
▁다음날	-2724
상이	-2725
진다	-2726
▁되는	-2727
▁혼자	-2728
건으로	-2729
▁대표가	-2730
▁봉	-2731
▁냈다	-2732
▁살펴	-2733
▁투기	-2734
▁동양대	-2735
▁사람은	-2736
▁의혹에	-2737
▁증거가	-2738
수는	-2739
함을	-2740
▁형이	-2741
▁가중처벌	-2742
▁교통사고	-2743
년이	-2744
한국	-2745
▁씨에	-2746
▁신청할	-2747
▁2014	-2748
▁놀	-2749
▁강원	-2750
▁댓글	-2751
▁참석	-2752
▁회장이	-2753
▁받아들이지	-2754
도가	-2755
▁보관	-2756
▁가지고	-2757
▁거짓말	-2758
▁교수가	-2759
▁체포했다	-2760
자와	-2761
주택	-2762
▁가격	-2763
▁전망	-2764
▁199	-2765
▁2013	-2766
사회	-2767
▁규모	-2768
▁하다	-2769
집행방해	-2770
.3	-2771
세계	-2772
조치	-2773
사이트	-2774
상에서	-2775
▁신상정보	-2776
▁연쇄살인	-2777
공사	-2778
▁PC	-2779
▁보낸	-2780
▁불과	-2781
▁국과수	-2782
▁휴대폰	-2783
청소년의	-2784
▁검거했다	-2785
▁탓	-2786
접종	-2787
▁가상	-2788
▁제보	-2789
▁추징	-2790
▁여성의	-2791
▁혈중알	-2792
17	-2793
▁견	-2794
나라	-2795
▁갖고	-2796
▁인식	-2797
▁중대	-2798
▁최후	-2799
an	-2800
▁넘는	-2801
▁진상	-2802
▁확대	-2803
▁결과가	-2804
▁수사관	-2805
▁영장을	-2806
▁잘못을	-2807
▁받게	-2808
▁외부	-2809
▁투표	-2810
▁관련된	-2811
▁/	-2812
군이	-2813
▁종결	-2814
코올농	-2815
▁검사를	-2816
피스	-2817
▁하자	-2818
모펀드	-2819
▁만들어	-2820
▁재판이	-2821
지막	-2822
▁중단	-2823
▁김태현	-2824
▁앞으로	-2825
▁미리	-2826
▁일으	-2827
▁편의	-2828
▁살인사건	-2829
▁체포됐다	-2830
14	-2831
▁끼	-2832
대문	-2833
밖에	-2834
자인	-2835
▁등과	-2836
▁증인으로	-2837
▁동거	-2838
▁공판을	-2839
▁기다	-2840
▁김씨가	-2841
▁윤씨는	-2842
▁병원에서	-2843
▁압수수색을	-2844
▁괴롭	-2845
▁다니	-2846
▁증가	-2847
▁범죄의	-2848
▁수사하고	-2849
▁고등	-2850
▁비밀	-2851
▁스트	-2852
▁연루	-2853
▁국회의	-2854
▁의사를	-2855
24	-2856
▁객	-2857
▁뒷	-2858
병을	-2859
수가	-2860
▁공공	-2861
▁김진	-2862
▁유치	-2863
▁원심을	-2864
▁성착취물	-2865
여성	-2866
정지	-2867
항을	-2868
▁노력	-2869
▁상대	-2870
▁열어	-2871
▁이웃	-2872
▁지내	-2873
됐지만	-2874
서비스	-2875
▁관련한	-2876
▁조사한	-2877
▁오늘	-2878
했다가	-2879
▁때리고	-2880
▁사용한	-2881
▁업무방해	-2882
▁패	-2883
차량	-2884
▁화재	-2885
▁곧바로	-2886
▁공판기일	-2887
▁방식으로	-2888
▁상태였다	-2889
▁반면	-2890
▁받기	-2891
▁죄송	-2892
▁하면서	-2893
.6	-2894
▁리	-2895
리티	-2896
▁여자친구	-2897
▁안산	-2898
▁해야	-2899
▁보이지	-2900
▁기소의견	-2901
▁땅	-2902
번째	-2903
아가	-2904
▁내고	-2905
▁상처	-2906
▁표현	-2907
에게는	-2908
.7	-2909
취한	-2910
▁복역	-2911
▁은행	-2912
▁고려했다	-2913
▁듯	-2914
▁와	-2915
로폰	-2916
시효	-2917
있는	-2918
자기	-2919
▁가볍	-2920
▁가혹	-2921
▁것도	-2922
▁수면	-2923
동차	-2924
지난	-2925
▁양육	-2926
▁임원	-2927
▁지켜	-2928
▁직권	-2929
보호법	-2930
▁아무런	-2931
▁입었다	-2932
▁판단해	-2933
▁선고하고	-2934
▁낳	-2935
인권	-2936
▁마친	-2937
▁빌려	-2938
씨로부터	-2939
▁갚	-2940
▁빚	-2941
▁클	-2942
봉현	-2943
▁입고	-2944
▁자격	-2945
.0	-2946
문이	-2947
절한	-2948
추적	-2949
▁말한	-2950
▁부실	-2951
▁시설	-2952
▁업무를	-2953
▁훈	-2954
라이	-2955
▁음란물	-2956
▁조사에	-2957
▁피해가	-2958
조직	-2959
▁분리	-2960
▁신속	-2961
▁인지	-2962
▁지연	-2963
▁박씨는	-2964
▁있는지	-2965
사로	-2966
▁알아	-2967
▁전격	-2968
▁페이	-2969
▁도주한	-2970
▁별다른	-2971
▁방법으로	-2972
▁현행범으로	-2973
기고	-2974
▁나가	-2975
▁대검	-2976
▁외국인	-2977
▁의원이	-2978
▁중이던	-2979
▁처벌이	-2980
▁발부했다	-2981
▁진행하고	-2982
처리	-2983
▁고위	-2984
▁불량	-2985
토바이	-2986
▁내비친	-2987
▁넘겼다	-2988
▁서초구	-2989
▁가능성을	-2990
▁스트레스	-2991
.”	-2992
죄를	-2993
▁빠져	-2994
▁사는	-2995
자에게	-2996
▁대검찰청	-2997
%)	-2998
위드	-2999
▁감안	-3000
▁포함해	-3001
▁2000	-3002
▁서울남부지법	-3003
▁헌	-3004
▁평가	-3005
▁훔쳐	-3006
▁교수의	-3007
▁백신접종	-3008
▁상황에서	-3009
수익	-3010
은행	-3011
▁로비	-3012
▁벌이고	-3013
▁진행된	-3014
▁도로교통	-3015
▁신분으로	-3016
▁잇	-3017
신저	-3018
▁소개	-3019
▁제외	-3020
▁향후	-3021
▁활용	-3022
세계서	-3023
▁300	-3024
▁마지막	-3025
▁기소했다	-3026
▁서울지방경찰청	-3027
경심	-3028
마트	-3029
증을	-3030
▁단순	-3031
▁못해	-3032
▁얼마	-3033
▁우발	-3034
▁뒤늦게	-3035
▁팀	-3036
손괴	-3037
▁내용은	-3038
▁아니냐	-3039
▁역할을	-3040
▁확보한	-3041
▁회장의	-3042
▁않는다는	-3043
▁청구했다	-3044
▁흘	-3045
협박	-3046
▁가슴	-3047
▁발로	-3048
▁이해	-3049
▁침해	-3050
▁탄원	-3051
▁해결	-3052
▁가로챈	-3053
프로그램	-3054
▁고소장을	-3055
집에	-3056
▁관할	-3057
▁등록	-3058
▁방조	-3059
▁힘들	-3060
피스텔	-3061
▁500	-3062
▁이상의	-3063
▁포함한	-3064
▁위법	-3065
▁포착	-3066
▁김씨의	-3067
▁필로폰	-3068
▁남성에게	-3069
라임	-3070
병원	-3071
컴퓨	-3072
▁블랙	-3073
▁승객	-3074
▁잔혹	-3075
▁파기	-3076
▁성희롱	-3077
▁범행으로	-3078
▁의붓아들	-3079
▁혈중알코올농	-3080
▁꺼	-3081
▁탑	-3082
세를	-3083
▁당초	-3084
▁모욕	-3085
컴퓨터	-3086
▁사고로	-3087
▁이르게	-3088
▁절차를	-3089
▁벌금형을	-3090
▁뿌	-3091
▁헤	-3092
일에	-3093
해주	-3094
▁구급	-3095
▁무단	-3096
▁빼돌	-3097
▁사라	-3098
▁수치	-3099
▁당했다	-3100
▁상황이	-3101
▁장관의	-3102
▁정황을	-3103
▁요구했다	-3104
▁구속기소된	-3105
87	-3106
’(	-3107
동생	-3108
▁가수	-3109
▁가져	-3110
▁즉시	-3111
▁발견돼	-3112
▁선처를	-3113
▁앓	-3114
단은	-3115
렀다	-3116
준비	-3117
포한	-3118
▁목을	-3119
▁번째	-3120
▁보안	-3121
▁연락을	-3122
▁유죄로	-3123
▁에	-3124
과는	-3125
재인	-3126
쪽이	-3127
▁벌어	-3128
▁서류	-3129
▁제시	-3130
▁마약을	-3131
▁이같이	-3132
▁전자발찌	-3133
▁징역형을	-3134
에관한법률	-3135
▁몇	-3136
대책	-3137
치상	-3138
▁가짜	-3139
▁성남	-3140
▁일관	-3141
▁교도소	-3142
▁진행한	-3143
하겠다는	-3144
▁오토바이	-3145
▁오피스텔	-3146
▁쫓	-3147
▁흡	-3148
▁불안	-3149
▁여행	-3150
▁일본	-3151
▁확진	-3152
▁강제로	-3153
▁부부는	-3154
▁카메라	-3155
▁협박해	-3156
▁사모펀드	-3157
▁개발	-3158
▁김씨	-3159
▁면담	-3160
▁재발	-3161
▁다치게	-3162
▁사망에	-3163
▁실제로	-3164
▁이들을	-3165
▁효	-3166
이번	-3167
▁방역	-3168
▁채팅	-3169
성폭력	-3170
▁집으로	-3171
▁판결에	-3172
23	-3173
개발	-3174
무를	-3175
이가	-3176
▁국적	-3177
▁최고	-3178
▁호텔	-3179
▁망	-3180
대구	-3181
도의	-3182
모빌	-3183
학년	-3184
▁등도	-3185
▁바꿔	-3186
▁보건	-3187
▁알선	-3188
▁검사는	-3189
▁범행이	-3190
▁병원에	-3191
▁신고한	-3192
26	-3193
만에	-3194
▁분노	-3195
?...	-3196
▁손해배	-3197
▁승용차	-3198
들로부터	-3199
모빌리티	-3200
됐던	-3201
분이	-3202
▁거리	-3203
사실을	-3204
수사를	-3205
지면서	-3206
▁연락이	-3207
▁주장한	-3208
▁가량	-3209
▁바닥	-3210
▁최소	-3211
▁동아일보	-3212
▁성착취물을	-3213
▁스타모빌리티	-3214
▁항소심에서도	-3215
▁쉽	-3216
스북	-3217
있다	-3218
제공	-3219
춘천	-3220
▁소년	-3221
▁의미	-3222
회에서	-3223
▁대해선	-3224
▁참고인	-3225
시아	-3226
음란	-3227
▁국방	-3228
▁법적	-3229
▁필요가	-3230
▁기소의견으로	-3231
▁◇	-3232
대전	-3233
▁격리	-3234
▁고객	-3235
▁비슷	-3236
▁소유	-3237
▁심신	-3238
었지만	-3239
▁바란다	-3240
▁엄벌을	-3241
▁협박한	-3242
▁뛰	-3243
▁낼까	-3244
▁수익	-3245
▁시절	-3246
▁지정	-3247
▁들었다	-3248
▁있었고	-3249
▁확인해	-3250
위원회를	-3251
▁어느쪽이	-3252
?...16	-3253
▁M	-3254
동부	-3255
▁사칭	-3256
▁앞에	-3257
▁하면	-3258
달라고	-3259
▁관련자	-3260
▁않았고	-3261
▁학대한	-3262
▁j	-3263
▁y	-3264
로운	-3265
침입	-3266
▁과정	-3267
▁불이	-3268
▁입원	-3269
▁주식	-3270
지에서	-3271
▁검찰총	-3272
▁마치고	-3273
▁아들이	-3274
▁휘두른	-3275
▁있었다고	-3276
점이	-3277
▁반응	-3278
▁이틀	-3279
▁대가로	-3280
▁사람들이	-3281
부패	-3282
스타	-3283
체를	-3284
카오	-3285
▁물론	-3286
▁후배	-3287
만으로	-3288
▁가담한	-3289
연쇄살인	-3290
▁가상화폐	-3291
▁가까	-3292
▁듣고	-3293
▁부적	-3294
시부터	-3295
▁동영상	-3296
▁진행할	-3297
▁E	-3298
년과	-3299
사업	-3300
▁갈등	-3301
▁도피	-3302
▁인도	-3303
씨도	-3304
▁hs	-3305
▁문을	-3306
▁싶다	-3307
▁올려	-3308
▁음식	-3309
▁입힌	-3310
▁기소돼	-3311
▁장관이	-3312
▁차량에	-3313
▁결정했다	-3314
▁발견했다	-3315
만을	-3316
사무	-3317
▁엄정	-3318
▁판단을	-3319
▁송치했다고	-3320
청에	-3321
학의	-3322
▁권한	-3323
▁들여	-3324
▁채널	-3325
했는지	-3326
▁결정을	-3327
▁김봉현	-3328
▁남성을	-3329
▁않도록	-3330
▁영장전담	-3331
▁둘	-3332
▁테	-3333
▁헬	-3334
관은	-3335
만간	-3336
수로	-3337
졌고	-3338
줬다	-3339
▁걸어	-3340
▁유인	-3341
▁있지	-3342
▁전에	-3343
▁특검	-3344
▁범행은	-3345
▁사실상	-3346
▁공소시효	-3347
▁형사처벌	-3348
29	-3349
서에	-3350
▁선임	-3351
▁신빙	-3352
▁장소	-3353
▁검사의	-3354
▁경찰에서	-3355
▁선고받고	-3356
▁시민단체	-3357
▁직원으로	-3358
▁구속영장이	-3359
.9	-3360
법에	-3361
았던	-3362
▁강훈	-3363
▁직장	-3364
▁일부를	-3365
▁컴퓨터	-3366
▁수원지법	-3367
.(	-3368
▁각종	-3369
▁수수	-3370
▁원칙	-3371
▁표창	-3372
▁향해	-3373
보호에	-3374
▁그동안	-3375
▁학대를	-3376
▁전자장치	-3377
▁페이스북	-3378
내려	-3379
신종	-3380
▁공정	-3381
▁중구	-3382
▁범죄에	-3383
▁서울서	-3384
▁것이라고	-3385
▁멍	-3386
▁터	-3387
닝썬	-3388
르다	-3389
▁송파	-3390
▁탑승	-3391
▁폭언	-3392
▁항의	-3393
▁메신저	-3394
▁생각한다	-3395
▁입건했다고	-3396
▁성폭력범죄의	-3397
대의	-3398
이자	-3399
▁내리	-3400
▁명확	-3401
▁5000	-3402
ho	-3403
스럽	-3404
이기	-3405
전주	-3406
제가	-3407
▁승리	-3408
▁원룸	-3409
▁잠을	-3410
▁도움을	-3411
▁중학생	-3412
▁적발됐다	-3413
▁뜻	-3414
남용	-3415
증권	-3416
~20	-3417
▁개설	-3418
▁보육	-3419
▁최초	-3420
(56)	-3421
▁검찰과	-3422
▁결정할	-3423
▁사람을	-3424
▁이뤄진	-3425
▁밟	-3426
▁싸	-3427
▁앉	-3428
▁앱	-3429
히려	-3430
▁배당	-3431
▁약속	-3432
▁정당	-3433
▁침입	-3434
성범죄	-3435
▁드러나	-3436
▁사실은	-3437
▁유전자	-3438
▁요구하는	-3439
▁서울남부지검	-3440
문서	-3441
▁일행	-3442
▁전면	-3443
▁해서	-3444
▁강남구	-3445
▁남성은	-3446
▁한다고	-3447
월에	-3448
진술	-3449
회는	-3450
▁권력	-3451
▁부상	-3452
▁유명	-3453
선거법	-3454
▁벌였다	-3455
▁폭력을	-3456
방지	-3457
▁금품	-3458
▁중고	-3459
(22)	-3460
▁범죄로	-3461
▁착수했다	-3462
▁특정경제	-3463
▁영장실질심	-3464
BC	-3465
메시	-3466
어야	-3467
운동	-3468
웠다	-3469
혜선	-3470
▁수행	-3471
▁일상	-3472
▁차단	-3473
▁검사가	-3474
▁중형을	-3475
▁밝혀졌다	-3476
▁초등학생	-3477
화를	-3478
▁기재	-3479
▁동물	-3480
▁신뢰	-3481
▁유료	-3482
▁자수	-3483
▁재차	-3484
▁전과	-3485
▁부분이	-3486
▁법무부는	-3487
▁폭행하고	-3488
▁학교폭력	-3489
등포	-3490
치료	-3491
▁기획	-3492
▁나올	-3493
▁딸이	-3494
▁순찰	-3495
▁점검	-3496
▁호송	-3497
카메라	-3498
하려고	-3499
▁상당한	-3500
▁정황이	-3501
▁조씨가	-3502
▁기자회견을	-3503
▁쓴	-3504
비가	-3505
▁목적	-3506
▁서구	-3507
▁용인	-3508
▁해명	-3509
해왔다	-3510
(24)	-3511
▁성관계	-3512
▁퍼	-3513
▁홀	-3514
등록	-3515
카드	-3516
특정	-3517
▁노출	-3518
▁배달	-3519
▁부천	-3520
▁시인	-3521
적이고	-3522
▁블랙박스	-3523
▁소방당국	-3524
▁p	-3525
와의	-3526
하여	-3527
▁공익	-3528
▁병합	-3529
▁보복	-3530
▁무면허	-3531
▁영등포	-3532
렌식	-3533
법인	-3534
살해	-3535
▁골절	-3536
▁서로	-3537
자들이	-3538
▁지하철	-3539
▁휘둘러	-3540
▁성보호에	-3541
법을	-3542
▁공식	-3543
▁무마	-3544
▁은닉	-3545
▁진정	-3546
▁갑자기	-3547
▁밖으로	-3548
▁불기소	-3549
▁상처를	-3550
▁반박했다	-3551
▁개인정보를	-3552
▁멈	-3553
은닉	-3554
주지	-3555
치기	-3556
▁것과	-3557
▁골프	-3558
▁길이	-3559
▁살아	-3560
▁부산시	-3561
▁않으면	-3562
▁학부모	-3563
▁후보자	-3564
▁메시지를	-3565
▁않았다고	-3566
다시	-3567
따라	-3568
목의	-3569
시켜	-3570
▁그룹	-3571
▁도중	-3572
▁생명	-3573
▁은폐	-3574
▁입국	-3575
▁늘어난	-3576
▁결심공판에서	-3577
므로	-3578
▁동종	-3579
인에게	-3580
▁사고가	-3581
▁위치추적	-3582
▁접수됐다	-3583
받는	-3584
수수	-3585
토킹	-3586
특수	-3587
▁노래	-3588
▁단계	-3589
▁동원	-3590
▁직원이	-3591
▁조사결과	-3592
▁종합하면	-3593
디오	-3594
러한	-3595
일이	-3596
▁동일	-3597
▁용서	-3598
▁원심	-3599
▁이렇게	-3600
▁불법촬영	-3601
간다	-3602
▁도와	-3603
▁벌여	-3604
▁변론	-3605
▁양천	-3606
▁판사	-3607
▁과정에	-3608
▁문제를	-3609
▁발견해	-3610
▁의원의	-3611
준비기일	-3612
▁구속했다	-3613
▁살인미수	-3614
▁주장하는	-3615
억여	-3616
▁개선	-3617
▁마신	-3618
▁측에	-3619
▁이용한	-3620
▁말다툼을	-3621
▁모텔에서	-3622
▁지속적으로	-3623
미약	-3624
서가	-3625
차로	-3626
▁공사	-3627
▁엄마	-3628
▁운용	-3629
▁유도	-3630
▁자가	-3631
▁대해서	-3632
▁비서관	-3633
▁자세한	-3634
▁손해배상	-3635
▁않았다는	-3636
▁제기했다	-3637
)’	-3638
▁묵	-3639
체육	-3640
▁상고	-3641
▁실형	-3642
신고를	-3643
통신망	-3644
▁발언을	-3645
▁정씨는	-3646
▁카카오	-3647
피해자가	-3648
▁성폭행을	-3649
▁능	-3650
▁캡	-3651
스러	-3652
회사	-3653
▁만한	-3654
▁이첩	-3655
▁작업	-3656
▁죄책	-3657
됐다고	-3658
으면서	-3659
▁개정안	-3660
▁반성하는	-3661
22	-3662
▁묶	-3663
간의	-3664
공소	-3665
정신	-3666
청주	-3667
▁박모	-3668
번호를	-3669
▁비슷한	-3670
▁조씨의	-3671
▁수원지검	-3672
가가	-3673
시킨	-3674
았고	-3675
SNS	-3676
▁경험	-3677
▁글이	-3678
▁말씀	-3679
▁창원	-3680
▁문자메시	-3681
▁상습적으로	-3682
▁공판준비기일	-3683
ar	-3684
▁프	-3685
▁결혼	-3686
▁배임	-3687
▁조카	-3688
▁중에	-3689
▁▶	-3690
▁국제	-3691
▁내린	-3692
▁한강	-3693
▁때까지	-3694
▁모습이	-3695
▁보였다	-3696
▁유튜버	-3697
▁정경심	-3698
레이	-3699
리며	-3700
비리	-3701
▁가입	-3702
▁당부	-3703
▁대비	-3704
▁딸의	-3705
▁비교	-3706
▁업주	-3707
▁측의	-3708
▁카페	-3709
▁한번	-3710
물손괴	-3711
▁의혹과	-3712
▁확인할	-3713
경찰청은	-3714
▁피해자들을	-3715
고도	-3716
돼야	-3717
요원	-3718
▁간부	-3719
▁사랑	-3720
▁신도	-3721
▁영업	-3722
▁정식	-3723
▁제도	-3724
구에서	-3725
▁신고로	-3726
▁재판은	-3727
▁제주시	-3728
▁광주지법	-3729
▁피의자심	-3730
es	-3731
ha	-3732
성과	-3733
참여	-3734
jin	-3735
▁번호	-3736
▁비용	-3737
▁합동	-3738
▁반부패	-3739
▁어려워	-3740
▁하는데	-3741
kg	-3742
수본	-3743
지로	-3744
▁LH	-3745
▁노동	-3746
▁모녀	-3747
▁않자	-3748
▁조씨	-3749
▁문재인	-3750
▁미수에	-3751
▁조사가	-3752
▁받아들여	-3753
▁의견으로	-3754
▁왔	-3755
공직	-3756
▁본격	-3757
▁통과	-3758
됐다는	-3759
일에는	-3760
하려는	-3761
▁대기업	-3762
▁부위를	-3763
▁실형이	-3764
▁인정한	-3765
▁확보했다	-3766
▁불가피하다	-3767
▁피해자들의	-3768
기준	-3769
심에	-3770
▁jh	-3771
▁구입	-3772
▁당사	-3773
▁만든	-3774
▁배제	-3775
▁수천	-3776
▁우선	-3777
▁장모	-3778
▁늦	-3779
▁왕	-3780
하나	-3781
▁내가	-3782
▁누구	-3783
▁연기	-3784
▁위장	-3785
▁임의	-3786
▁아내를	-3787
▁동영상을	-3788
▁인정된다	-3789
돈을	-3790
용한	-3791
▁“1	-3792
▁대리	-3793
▁출연	-3794
▁시간이	-3795
▁가능성도	-3796
▁고발했다	-3797
▁성매매를	-3798
▁시작했다	-3799
건에	-3800
천지	-3801
▁가진	-3802
▁민간	-3803
▁방향	-3804
▁복지	-3805
▁수상	-3806
▁수집	-3807
▁열릴	-3808
▁수사와	-3809
▁영향을	-3810
▁카카오톡	-3811
케이	-3812
행정	-3813
▁군산	-3814
▁놓고	-3815
▁심의	-3816
▁일정	-3817
▁보이고	-3818
▁수사의	-3819
▁조만간	-3820
▁행동을	-3821
과정에서	-3822
▁승용차를	-3823
▁용의자로	-3824
▁이뤄지지	-3825
▁도로교통법	-3826
▁피해자들이	-3827
▁벽	-3828
년의	-3829
동구	-3830
아버	-3831
울산	-3832
▁그를	-3833
▁시험	-3834
이었던	-3835
▁불복해	-3836
▁서울북	-3837
▁입주민	-3838
▁중대한	-3839
▁2009	-3840
▁조사했다	-3841
란을	-3842
방송	-3843
cho	-3844
▁경영	-3845
▁다툼	-3846
▁전직	-3847
▁질문	-3848
▁충돌	-3849
▁합리	-3850
▁사람의	-3851
▁작성한	-3852
▁혐의와	-3853
▁특수상해	-3854
공급	-3855
에선	-3856
특별	-3857
▁심사	-3858
▁통한	-3859
▁관리에	-3860
▁올렸다	-3861
▁조혜선	-3862
▁진술이	-3863
대학	-3864
링크	-3865
조합	-3866
화성	-3867
▁공조	-3868
▁남아	-3869
▁보는	-3870
▁참고	-3871
됐으며	-3872
상으로	-3873
▁다수의	-3874
▁둔기로	-3875
▁신청을	-3876
▁행위는	-3877
▁성관계를	-3878
▁징역형의	-3879
▁홈	-3880
물이	-3881
항공	-3882
▁근로	-3883
▁당해	-3884
▁미만	-3885
▁송환	-3886
▁총장	-3887
▁크다	-3888
▁김모씨	-3889
▁오히려	-3890
▁제목의	-3891
▁경찰관이	-3892
▁극단적인	-3893
▁아동학대치사	-3894
각을	-3895
구역	-3896
리핀	-3897
▁끝내	-3898
▁나이	-3899
▁다투	-3900
▁석방	-3901
▁재직	-3902
▁하기	-3903
▁거리두	-3904
▁비롯해	-3905
▁장씨는	-3906
▁현장을	-3907
▁화성연쇄살인	-3908
▁특정범죄가중처벌	-3909
▁빨	-3910
경을	-3911
나는	-3912
조차	-3913
▁공군	-3914
5000	-3915
▁김진하	-3916
▁떨어진	-3917
▁명의로	-3918
▁중학교	-3919
조사에서	-3920
jinha	-3921
▁제주지방법원	-3922
▁jhjinha	-3923
내가	-3924
실을	-3925
움이	-3926
차별	-3927
치지	-3928
포츠	-3929
▁35	-3930
▁거절	-3931
▁더욱	-3932
▁운행	-3933
▁잠적	-3934
▁찌른	-3935
▁폭발	-3936
▁희망	-3937
개월간	-3938
▁난동을	-3939
▁바닥에	-3940
▁여전히	-3941
▁범죄수익	-3942
28	-3943
▁쪽	-3944
량의	-3945
려는	-3946
리핑	-3947
▁뒤인	-3948
▁무거	-3949
▁무시	-3950
▁126	-3951
▁요구한	-3952
▁하겠다	-3953
▁2012	-3954
▁붙잡았다	-3955
▁수법으로	-3956
버스	-3957
보를	-3958
▁낳은	-3959
▁누리	-3960
▁부과	-3961
▁아래	-3962
▁연예	-3963
▁존재	-3964
▁초기	-3965
▁추락	-3966
▁취득	-3967
자들의	-3968
하라고	-3969
▁소송을	-3970
▁지시를	-3971
▁확인되지	-3972
랜드	-3973
려가	-3974
보면	-3975
업무	-3976
였고	-3977
일러	-3978
▁감형	-3979
▁방화	-3980
생활을	-3981
▁대표의	-3982
▁태도를	-3983
▁행위에	-3984
▁입건했다	-3985
관련	-3986
로를	-3987
▁다행	-3988
▁모르	-3989
▁민정	-3990
▁시점	-3991
▁일삼	-3992
▁제가	-3993
▁점에서	-3994
▁했는데	-3995
하면서도	-3996
▁아니라고	-3997
▁피고인은	-3998
▁피의자심문	-3999
부당	-4000
▁그가	-4001
▁시내	-4002
▁이혼	-4003
▁인계	-4004
▁전환	-4005
▁천안	-4006
▁사회봉	-4007
▁했으나	-4008
▁심신미약	-4009
~3	-4010
▁뜯	-4011
▁탐	-4012
받지	-4013
우는	-4014
음주	-4015
추홀	-4016
▁금감	-4017
▁대로	-4018
▁문화	-4019
▁안정	-4020
▁안타	-4021
▁주도	-4022
▁운영한	-4023
▁판매한	-4024
▁이뤄졌다	-4025
▁구속했다고	-4026
▁낙	-4027
▁빈	-4028
▁움	-4029
켰다	-4030
▁암호	-4031
▁입금	-4032
▁자살	-4033
▁하게	-4034
구하고	-4035
▁열린다	-4036
▁저질러	-4037
▁제기된	-4038
▁음주운전을	-4039
트남	-4040
학폭	-4041
항소	-4042
▁노원	-4043
▁임신	-4044
▁있게	-4045
▁태안	-4046
▁가방에	-4047
▁결과에	-4048
▁상황이다	-4049
▁파악하고	-4050
계약	-4051
었을	-4052
해당	-4053
▁45	-4054
▁송금	-4055
▁정인	-4056
▁제안	-4057
▁중순	-4058
▁불가능	-4059
▁수밖에	-4060
▁시장의	-4061
▁없었던	-4062
▁적극적으로	-4063
배를	-4064
접대	-4065
제로	-4066
▁대법	-4067
▁범인	-4068
▁수강	-4069
▁숨져	-4070
▁오른	-4071
▁지구	-4072
▁고의로	-4073
▁마시고	-4074
▁마포구	-4075
▁부검을	-4076
▁수사권	-4077
▁스토킹	-4078
▁자동차	-4079
▁제기한	-4080
▁직원을	-4081
▁직권남용	-4082
는다	-4083
되기	-4084
▁부패	-4085
▁연결	-4086
▁자기	-4087
▁춘천	-4088
▁해도	-4089
▁종로구	-4090
참여재판	-4091
▁영상물을	-4092
▁취재진의	-4093
▁s	-4094
▁렌	-4095
▁캐	-4096
상황	-4097
▁넘게	-4098
▁손을	-4099
▁신변	-4100
▁절충	-4101
집에서	-4102
▁운전을	-4103
▁포렌식	-4104
▁주장하고	-4105
놓고	-4106
형욱	-4107
▁개입	-4108
▁건설	-4109
▁관악	-4110
▁당국	-4111
▁받던	-4112
▁시달	-4113
▁경비원	-4114
▁진행될	-4115
▁허위로	-4116
▁확보해	-4117
▁고소했다	-4118
관의	-4119
액을	-4120
▁검색	-4121
▁투입	-4122
▁강씨는	-4123
▁이야기	-4124
▁거리두기	-4125
▁법원에서	-4126
▁특별수사	-4127
▁안해본선경쟁력	-4128
et	-4129
is	-4130
▁짧	-4131
단속	-4132
단에	-4133
드시	-4134
적을	-4135
▁나왔	-4136
▁북한	-4137
▁사정	-4138
▁인멸	-4139
대통령	-4140
▁강하게	-4141
▁부분에	-4142
▁영상물	-4143
▁정도가	-4144
▁투약한	-4145
▁국회의원	-4146
▁치료프로그램	-4147
▁피해자들에게	-4148
공동	-4149
▁학폭	-4150
▁형태	-4151
(29)	-4152
▁누리꾼	-4153
▁출석해	-4154
▁공직선거법	-4155
▁공무집행방해	-4156
▁덮	-4157
건이	-4158
마다	-4159
분간	-4160
처분	-4161
횡령	-4162
▁근처	-4163
▁수백	-4164
▁외에	-4165
아이가	-4166
▁감염병	-4167
▁근거로	-4168
▁손으로	-4169
▁유리한	-4170
▁이러한	-4171
▁행위가	-4172
4·	-4173
▁U	-4174
부와	-4175
월께	-4176
▁과실	-4177
▁군사	-4178
▁빠진	-4179
▁성인	-4180
▁전반	-4181
▁파견	-4182
▁수사할	-4183
▁양부모	-4184
▁하다가	-4185
▁법정구속	-4186
▁출국금지	-4187
스템	-4188
▁간호	-4189
▁내사	-4190
▁무엇	-4191
▁시청	-4192
▁신호	-4193
▁캡처	-4194
교육청	-4195
▁법원의	-4196
▁서울대	-4197
▁스마트	-4198
▁청장은	-4199
ol	-4200
선수	-4201
해양	-4202
100	-4203
▁미안	-4204
▁미추홀	-4205
▁반드시	-4206
▁베트남	-4207
▁보냈다	-4208
▁비공개	-4209
▁시도한	-4210
▁지목된	-4211
▁체포해	-4212
▁편의점	-4213
▁고등학교	-4214
▁입장문을	-4215
▁신청했다고	-4216
불법	-4217
우고	-4218
주일	-4219
▁구청	-4220
▁목표	-4221
▁박상	-4222
▁법인	-4223
▁수용	-4224
▁입시	-4225
한국당	-4226
▁시스템	-4227
▁심각한	-4228
▁쓰러져	-4229
▁필리핀	-4230
▁주먹으로	-4231
▁해당하는	-4232
(8	-4233
cm	-4234
소방	-4235
이사	-4236
체적	-4237
▁가깝	-4238
▁나쁘	-4239
▁맡은	-4240
▁매입	-4241
▁반발	-4242
▁부담	-4243
▁정리	-4244
▁KBS	-4245
▁공판은	-4246
▁택배사	-4247
▁아동보호	-4248
▁통화에서	-4249
▁공소사실을	-4250
31	-4251
심한	-4252
▁게재	-4253
▁김포	-4254
▁명백	-4255
▁상장	-4256
▁익산	-4257
▁전치	-4258
▁정의	-4259
내려놓	-4260
하는데	-4261
▁문형욱	-4262
▁송치할	-4263
▁여성은	-4264
▁임원서	-4265
▁전부터	-4266
▁...“	-4267
▁불구하고	-4268
▁올라왔다	-4269
▁의뢰했다	-4270
내려놓으니	-4271
▁쌍	-4272
마약	-4273
왼쪽	-4274
절도	-4275
▁기본	-4276
▁누군	-4277
▁운동	-4278
▁이내	-4279
(37)	-4280
▁여학생	-4281
▁작업을	-4282
▁할머니	-4283
▁활동을	-4284
▁범인으로	-4285
▁변호사가	-4286
35	-4287
5·	-4288
노동	-4289
단계	-4290
리로	-4291
상담	-4292
▁내역	-4293
▁종업	-4294
▁항공	-4295
▁대표를	-4296
▁주변에	-4297
▁차량이	-4298
▁어려움을	-4299
부의	-4300
사관	-4301
산구	-4302
소로	-4303
신을	-4304
전을	-4305
.10	-4306
▁대처	-4307
▁마구	-4308
▁말이	-4309
▁명이	-4310
▁부회	-4311
▁의식	-4312
▁증명	-4313
▁추궁	-4314
영장을	-4315
(46)	-4316
▁여부는	-4317
▁의식을	-4318
▁인정할	-4319
▁휴대전화로	-4320
▁짓	-4321
고등	-4322
이용	-4323
재정	-4324
중에	-4325
▁가지	-4326
▁고민	-4327
▁발급	-4328
▁총격	-4329
▁나오지	-4330
▁뉴시스	-4331
▁추행한	-4332
▁것이라는	-4333
▁국립과학수사연구원에	-4334
가락	-4335
복무	-4336
학과	-4337
▁모집	-4338
▁앓고	-4339
▁의결	-4340
드린다	-4341
▁들어간	-4342
▁부상을	-4343
▁사이에	-4344
▁옮겨졌	-4345
▁인터뷰	-4346
▁자리를	-4347
▁공개했다	-4348
르게	-4349
리기	-4350
받을	-4351
생을	-4352
숨을	-4353
해온	-4354
활동	-4355
회분	-4356
▁물어	-4357
▁환경	-4358
됐으나	-4359
▁들여다	-4360
▁자리에서	-4361
지방경찰청은	-4362
3·	-4363
▁액	-4364
▁첩	-4365
더나	-4366
취소	-4367
▁외출	-4368
▁인출	-4369
▁자본	-4370
▁접속	-4371
▁주로	-4372
정인이	-4373
▁다음달	-4374
▁모더나	-4375
▁무겁다	-4376
▁전주시	-4377
▁피해아동	-4378
▁종합적으로	-4379
명도	-4380
언론	-4381
▁보강	-4382
▁얘기	-4383
▁영아	-4384
▁조금	-4385
▁차에	-4386
찬가지	-4387
피의자	-4388
▁그리고	-4389
▁나오고	-4390
▁내에서	-4391
▁브리핑	-4392
▁신상을	-4393
▁검거됐다	-4394
▁사망했다	-4395
ty	-4396
▁좀	-4397
대와	-4398
도박	-4399
이지	-4400
▁기업	-4401
▁뛰어	-4402
▁밝힐	-4403
▁본인	-4404
▁비리	-4405
▁위로	-4406
▁이중	-4407
▁입을	-4408
▁자주	-4409
▁체육	-4410
▁카드	-4411
대에게	-4412
▁고의가	-4413
▁일어나	-4414
▁지장이	-4415
▁철저히	-4416
위원회는	-4417
▁청원인은	-4418
▁만료	-4419
▁저녁	-4420
▁전송	-4421
▁주목	-4422
▁협력	-4423
▁협의	-4424
된다고	-4425
▁벌금형	-4426
▁범죄가	-4427
▁이씨의	-4428
▁당했다고	-4429
▁범죄단체	-4430
가고	-4431
기의	-4432
시민	-4433
연합	-4434
▁나체	-4435
▁다양	-4436
▁몸을	-4437
▁소셜	-4438
▁적은	-4439
음란물	-4440
▁김학의	-4441
▁등에게	-4442
▁접수한	-4443
▁마찬가지	-4444
규모	-4445
보니	-4446
인인	-4447
판결	-4448
▁객관	-4449
▁담겨	-4450
▁술자	-4451
▁안내	-4452
▁여의	-4453
▁잡고	-4454
(26)	-4455
▁같은해	-4456
▁방치해	-4457
▁벌이다	-4458
▁빼돌린	-4459
▁새로운	-4460
▁선고를	-4461
▁지적이	-4462
▁침입해	-4463
▁법무부장	-4464
▁비판했다	-4465
르지	-4466
일과	-4467
지구	-4468
▁수입	-4469
바이트	-4470
(27)	-4471
▁가족이	-4472
▁소환해	-4473
▁엄중한	-4474
▁인근에	-4475
▁거주하는	-4476
▁게시판에	-4477
▁당부했다	-4478
▁발견되지	-4479
▁이춘재의	-4480
▁전망이다	-4481
▁항소장을	-4482
개의	-4483
으려	-4484
이미	-4485
주고	-4486
▁36	-4487
▁검출	-4488
▁무고	-4489
(52)	-4490
▁공모해	-4491
▁알려져	-4492
▁옮겨져	-4493
▁대전지법	-4494
▁죄송하다	-4495
경찰서에서	-4496
▁정보통신망	-4497
▁국민참여재판	-4498
▁갔	-4499
▁맥	-4500
▁책	-4501
범이	-4502
심사	-4503
우리	-4504
청구	-4505
호선	-4506
▁깊이	-4507
▁비위	-4508
▁사죄	-4509
▁약식	-4510
▁여중	-4511
▁있기	-4512
▁주의	-4513
▁찍은	-4514
▁홍보	-4515
▁경제적	-4516
▁다행히	-4517
▁대상이	-4518
▁범행한	-4519
▁아내와	-4520
▁아들의	-4521
▁확인하기	-4522
2·	-4523
▁꼬	-4524
강제	-4525
관을	-4526
구조	-4527
보험	-4528
상의	-4529
시험	-4530
지와	-4531
▁대답	-4532
▁부시	-4533
▁세워	-4534
▁손정	-4535
▁어깨	-4536
▁전경	-4537
지검은	-4538
(28)	-4539
▁이씨가	-4540
여만원을	-4541
▁대구지법	-4542
갓갓	-4543
출석	-4544
▁대체	-4545
▁법리	-4546
▁우울	-4547
▁저항	-4548
▁전후	-4549
▁클럽	-4550
▁태국	-4551
이라도	-4552
▁경주시	-4553
▁달라고	-4554
▁동의를	-4555
▁무죄로	-4556
▁시신이	-4557
▁신청한	-4558
▁확인된	-4559
르바이트	-4560
▁적용했다	-4561
기와	-4562
민국	-4563
산업	-4564
정책	-4565
▁감시	-4566
▁개최	-4567
▁모친	-4568
▁중간	-4569
▁직전	-4570
(48)	-4571
6000	-4572
▁검찰로	-4573
▁경우가	-4574
▁남성의	-4575
▁상황에	-4576
▁입건된	-4577
▁달아났다	-4578
▁빌라에서	-4579
▁전해진다	-4580
▁지적장애	-4581
▁혹	-4582
배포	-4583
성에	-4584
천시	-4585
▁보장	-4586
▁살고	-4587
▁성립	-4588
▁센터	-4589
▁야산	-4590
▁일치	-4591
▁파손	-4592
해졌다	-4593
▁나오는	-4594
▁알려졌	-4595
▁요청을	-4596
▁이유가	-4597
▁최신종	-4598
▁입건됐다	-4599
▁입장이다	-4600
▁우발적으로	-4601
▁라임자산운용	-4602
▁k	-4603
됐을	-4604
신문	-4605
이런	-4606
이어	-4607
인에	-4608
짜리	-4609
▁쓰레	-4610
▁악성	-4611
▁압박	-4612
▁연관	-4613
▁정말	-4614
사건의	-4615
(36)	-4616
▁공개한	-4617
▁부부가	-4618
▁빠져나	-4619
▁신체적	-4620
▁유가족	-4621
▁충격을	-4622
▁양형부당	-4623
▁조주빈의	-4624
▁주장하며	-4625
▁차원에서	-4626
▁주거지에서	-4627
생아	-4628
수의	-4629
자체	-4630
조물	-4631
▁숨을	-4632
▁어디	-4633
▁제조	-4634
▁졸라	-4635
▁총선	-4636
▁토로	-4637
▁경위와	-4638
▁남편이	-4639
▁외에도	-4640
▁접수된	-4641
▁차관의	-4642
▁택시를	-4643
▁편취한	-4644
▁포함된	-4645
전문기관	-4646
▁들어갔다	-4647
▁서울서부지법	-4648
88	-4649
ma	-4650
고소	-4651
득표	-4652
세요	-4653
준영	-4654
판매	-4655
▁격분	-4656
▁끝난	-4657
▁넣어	-4658
▁대형	-4659
▁소명	-4660
▁움직	-4661
▁최모	-4662
▁관심이	-4663
▁발생해	-4664
▁선고가	-4665
▁윤석열	-4666
▁주장이	-4667
▁형량이	-4668
▁훼손한	-4669
▁금융감독	-4670
▁암호화폐	-4671
▁진행됐다	-4672
남기	-4673
오롱	-4674
진흥	-4675
▁건네	-4676
▁규명	-4677
▁근절	-4678
▁기사	-4679
▁부딪	-4680
▁부친	-4681
▁인턴	-4682
▁출근	-4683
▁허가	-4684
가에서	-4685
처벌법	-4686
(31)	-4687
▁가깝게	-4688
▁대학생	-4689
▁불만을	-4690
▁지시한	-4691
▁출동해	-4692
▁검토하고	-4693
▁아니냐는	-4694
범죄수사대는	-4695
▁쉬	-4696
보는	-4697
▁고교	-4698
▁막기	-4699
▁몰고	-4700
▁미뤄	-4701
▁분류	-4702
▁없을	-4703
기까지	-4704
년까지	-4705
합니다	-4706
▁원하지	-4707
▁종합해	-4708
피고인의	-4709
▁경찰청은	-4710
▁성추행한	-4711
▁울산지법	-4712
▁있었다는	-4713
▁조주빈은	-4714
▁b	-4715
▁걷	-4716
▁써	-4717
경기	-4718
지금	-4719
행을	-4720
.20	-4721
mag	-4722
▁김성	-4723
▁비어	-4724
▁성실	-4725
▁소비	-4726
▁없음	-4727
▁주지	-4728
▁추후	-4729
▁가볍지	-4730
▁목숨을	-4731
▁버닝썬	-4732
▁부분을	-4733
▁코오롱	-4734
▁학대해	-4735
▁고유정은	-4736
▁기자회견	-4737
▁중심으로	-4738
▁아르바이트	-4739
▁털	-4740
유경	-4741
▁끌고	-4742
▁나눠	-4743
▁안양	-4744
▁현관	-4745
(43)	-4746
etty	-4747
▁관계를	-4748
▁사례가	-4749
▁추징금	-4750
▁2011	-4751
▁구체적으로	-4752
94	-4753
▁칼	-4754
구치	-4755
더라	-4756
떠한	-4757
로는	-4758
보기	-4759
지청	-4760
한테	-4761
▁그친	-4762
▁납득	-4763
▁밀수	-4764
▁수는	-4765
▁입학	-4766
었다는	-4767
월에는	-4768
자료를	-4769
▁발견한	-4770
▁영상이	-4771
▁아버지가	-4772
▁쇼	-4773
▁흐	-4774
건전	-4775
곳에	-4776
니까	-4777
이로	-4778
일로	-4779
.12	-4780
▁강서	-4781
▁계정	-4782
▁높아	-4783
▁진료	-4784
▁차는	-4785
▁철거	-4786
(39)	-4787
Imag	-4788
▁서울의	-4789
▁않았던	-4790
▁이뤄질	-4791
▁장기간	-4792
▁조직원	-4793
▁판정을	-4794
Getty	-4795
▁음란물을	-4796
▁피해자에	-4797
▁펜	-4798
경남	-4799
내용	-4800
단이	-4801
로서	-4802
최근	-4803
함에	-4804
▁37	-4805
▁거론	-4806
▁광고	-4807
▁교회	-4808
▁금고	-4809
▁기부	-4810
▁머물	-4811
▁보완	-4812
▁주문	-4813
조치를	-4814
층에서	-4815
(30)	-4816
▁가능한	-4817
▁또다시	-4818
▁무차별	-4819
▁사전에	-4820
▁설치된	-4821
▁위치한	-4822
▁판단한	-4823
▁흉기에	-4824
부경찰서	-4825
▁없었다고	-4826
▁사실관계를	-4827
6·	-4828
DB	-4829
▁뺨	-4830
▁썼	-4831
기업	-4832
기지	-4833
산을	-4834
져야	-4835
충남	-4836
협회	-4837
27@	-4838
▁많다	-4839
▁민주	-4840
▁상품	-4841
▁절대	-4842
▁초과	-4843
▁해석	-4844
비서관	-4845
aris	-4846
▁pol	-4847
▁기사와	-4848
▁기억이	-4849
▁김씨를	-4850
▁목격자	-4851
▁범행의	-4852
▁조유경	-4853
▁코링크	-4854
고발사주	-4855
▁남자친구	-4856
▁민정수석	-4857
▁바꿔치기	-4858
▁polaris	-4859
뜨린	-4860
▁남녀	-4861
▁서면	-4862
▁조건	-4863
▁지른	-4864
▁표시	-4865
▁품고	-4866
▁했을	-4867
▁그런데	-4868
▁사정을	-4869
▁소란을	-4870
▁언론에	-4871
▁자금을	-4872
▁집회를	-4873
▁합의를	-4874
▁홍남기	-4875
▁발견하고	-4876
▁진상조사	-4877
▁홈페이지	-4878
명으로부터	-4879
대원	-4880
유행	-4881
▁가방	-4882
▁노조	-4883
▁먹고	-4884
▁바탕	-4885
▁보유	-4886
▁신원	-4887
▁인적	-4888
▁제지	-4889
▁조모	-4890
▁주소	-4891
▁120	-4892
▁부인한	-4893
▁서비스	-4894
▁한국인	-4895
동부지법	-4896
음주운전	-4897
GettyImag	-4898
7·	-4899
있던	-4900
ank	-4901
▁33	-4902
▁두려	-4903
▁뜯어	-4904
▁밖에	-4905
▁옷을	-4906
▁위에	-4907
▁접대	-4908
▁줄고	-4909
▁지도	-4910
▁허용	-4911
마스크	-4912
앞으로	-4913
할머니	-4914
▁과정을	-4915
▁극심한	-4916
▁부모가	-4917
▁신원을	-4918
▁여자친	-4919
▁유료회	-4920
▁징계를	-4921
▁고려하면	-4922
▁출석했다	-4923
▁특정범죄	-4924
▁피의자의	-4925
GettyImages	-4926
격리	-4927
군과	-4928
그러	-4929
모가	-4930
질환	-4931
▁곳간	-4932
▁과태	-4933
▁만인	-4934
▁양을	-4935
건전성	-4936
명이다	-4937
억원의	-4938
혐의로	-4939
화장실	-4940
▁고개를	-4941
▁괴롭힘	-4942
▁대표와	-4943
▁사실과	-4944
▁사형을	-4945
▁시장은	-4946
▁양형이	-4947
▁요청한	-4948
▁의정부	-4949
▁이수와	-4950
▁적발된	-4951
▁청주시	-4952
자들에게	-4953
▁비어간다	-4954
▁자신에게	-4955
재정건전성	-4956
▁서울동부지법	-4957
▁옛	-4958
노총	-4959
미애	-4960
어린	-4961
▁사항	-4962
▁없었	-4963
▁조합	-4964
▁혈액	-4965
▁회계	-4966
(58)	-4967
▁게시글	-4968
▁국방부	-4969
▁부분은	-4970
▁소리를	-4971
▁요구를	-4972
▁체포된	-4973
▁사회복무	-4974
▁이후에도	-4975
계획	-4976
렸고	-4977
업소	-4978
직을	-4979
출혈	-4980
▁군은	-4981
▁방청	-4982
▁선박	-4983
▁이로	-4984
▁잠시	-4985
▁진단	-4986
▁해운	-4987
▁후원	-4988
경찰이	-4989
공직자	-4990
(32)	-4991
▁대법관	-4992
▁여행용	-4993
▁원심과	-4994
▁원인을	-4995
▁촉구했다	-4996
▁영장실질심사를	-4997
사람	-4998
세대	-4999
시로	-5000
지노	-5001
▁가한	-5002
▁권고	-5003
▁물을	-5004
▁전부	-5005
▁점은	-5006
스러운	-5007
자들을	-5008
(47)	-5009
▁0.0	-5010
▁그렇게	-5011
▁방안을	-5012
▁최선을	-5013
▁해경은	-5014
▁선고해달라고	-5015
에관한법률위반	-5016
45	-5017
TF	-5018
디어	-5019
▁다친	-5020
▁상응	-5021
▁연장	-5022
▁육군	-5023
▁인수	-5024
▁훈련	-5025
시까지	-5026
우관계	-5027
(50)	-5028
(54)	-5029
Bank	-5030
▁담겼다	-5031
▁사실도	-5032
▁사진과	-5033
▁안정화	-5034
▁여중생	-5035
▁지자체	-5036
▁처벌할	-5037
▁바탕으로	-5038
▁부적절한	-5039
▁언급했다	-5040
▁예상된다	-5041
▁이들에게	-5042
GettyImagesBank	-5043
~2	-5044
▁I	-5045
▁벤	-5046
교회	-5047
복을	-5048
스를	-5049
용해	-5050
워크	-5051
자치	-5052
▁묻는	-5053
▁속에	-5054
▁조현	-5055
분부터	-5056
(19)	-5057
▁단속을	-5058
▁대화방	-5059
▁동시에	-5060
▁이르면	-5061
▁증거로	-5062
위원회에	-5063
▁경찰관을	-5064
▁살해했다	-5065
.©	-5066
그런	-5067
놨다	-5068
더니	-5069
동에	-5070
분에	-5071
안이	-5072
이었	-5073
징계	-5074
차에	-5075
해를	-5076
▁동승	-5077
▁묻자	-5078
▁바람	-5079
▁살던	-5080
▁식품	-5081
▁외상	-5082
▁윤모	-5083
▁일각	-5084
▁자고	-5085
▁점에	-5086
문에서	-5087
(20)	-5088
▁본인이	-5089
▁신생아	-5090
▁진실을	-5091
▁하거나	-5092
씨에게는	-5093
▁대법원은	-5094
▁사체유기	-5095
▁아버지는	-5096
▁어머니가	-5097
▁이야기를	-5098
▁파기하고	-5099
57	-5100
▁뉘	-5101
▁쏟	-5102
▁공포	-5103
▁둘러	-5104
▁들은	-5105
▁막아	-5106
▁맞다	-5107
▁반려	-5108
▁방어	-5109
▁잃은	-5110
▁정책	-5111
▁현지	-5112
▁홀로	-5113
▁상태가	-5114
▁의혹도	-5115
▁행사한	-5116
▁현금을	-5117
▁이춘재가	-5118
▁확인하는	-5119
▁자유한국당	-5120
▁↑	-5121
▁엉	-5122
살을	-5123
실로	-5124
해경	-5125
▁말에	-5126
▁모른	-5127
▁상관	-5128
▁인명	-5129
▁전인	-5130
▁투숙	-5131
경찰은	-5132
(35)	-5133
▁모르는	-5134
▁방해한	-5135
▁상당히	-5136
▁폭행과	-5137
▁거짓말을	-5138
▁허위사실	-5139
▁안정화되면	-5140
계좌	-5141
김에	-5142
득을	-5143
멤버	-5144
미를	-5145
법무	-5146
사인	-5147
원순	-5148
(30	-5149
▁늘어	-5150
▁미래	-5151
▁속옷	-5152
▁연습	-5153
▁혈흔	-5154
으로서	-5155
▁상당을	-5156
▁서대문	-5157
▁이익을	-5158
▁판단이	-5159
교우관계	-5160
▁↑...	-5161
▁사건이다	-5162
▁진심으로	-5163
▁처벌받은	-5164
▁폭행했다	-5165
▁성폭행하고	-5166
▁초등학교만	-5167
▁혈중알코올농도는	-5168
▁좌	-5169
금이	-5170
대상	-5171
분석	-5172
수감	-5173
연히	-5174
조작	-5175
해도	-5176
▁공간	-5177
▁때는	-5178
▁선정	-5179
▁양은	-5180
▁일단	-5181
▁즉각	-5182
▁찾은	-5183
▁총괄	-5184
관리법	-5185
명령을	-5186
속도로	-5187
억원대	-5188
▁공개된	-5189
▁대화를	-5190
▁명령을	-5191
▁분석을	-5192
▁시비가	-5193
▁어떠한	-5194
▁얼굴과	-5195
▁유죄를	-5196
▁정도의	-5197
▁중요한	-5198
▁투자한	-5199
강제추행	-5200
▁류	-5201
▁슬	-5202
구급	-5203
발을	-5204
성용	-5205
숙현	-5206
질을	-5207
터카	-5208
▁38	-5209
▁가게	-5210
▁게임	-5211
▁납치	-5212
▁등장	-5213
▁멤버	-5214
▁부평	-5215
▁비서	-5216
▁종료	-5217
된다는	-5218
▁기회를	-5219
▁살인의	-5220
▁스포츠	-5221
▁염려가	-5222
▁이름을	-5223
▁전달한	-5224
▁판결이	-5225
▁있었지만	-5226
▁출석하고	-5227
▁눌	-5228
▁맺	-5229
모를	-5230
일간	-5231
채를	-5232
탈레	-5233
튿날	-5234
▁그랬	-5235
▁끝나	-5236
▁났다	-5237
▁뉘우	-5238
▁다쳐	-5239
▁마주	-5240
▁빌린	-5241
▁위력	-5242
▁점이	-5243
▁지능	-5244
▁직업	-5245
▁파면	-5246
주겠다	-5247
(42)	-5248
(53)	-5249
▁고소한	-5250
▁다양한	-5251
▁명예를	-5252
▁차관이	-5253
▁2008	-5254
▁억울함을	-5255
도주	-5256
위의	-5257
(40	-5258
▁과학	-5259
▁남은	-5260
▁납품	-5261
▁대면	-5262
▁되고	-5263
▁따로	-5264
▁부린	-5265
▁수석	-5266
▁양의	-5267
▁존속	-5268
곳에서	-5269
▁결론을	-5270
▁관여한	-5271
▁대책을	-5272
▁렌터카	-5273
▁물건을	-5274
▁여의도	-5275
▁원심의	-5276
▁인터폴	-5277
▁제공한	-5278
▁직접적	-5279
▁불량하다	-5280
▁사실관계	-5281
▁있음에도	-5282
▁피의자가	-5283
산경찰서는	-5284
가던	-5285
관에	-5286
금액	-5287
여만	-5288
표를	-5289
▁가치	-5290
▁관해	-5291
▁기초	-5292
▁내연	-5293
▁뒤에	-5294
▁목포	-5295
▁방임	-5296
▁배포	-5297
▁보조	-5298
▁원의	-5299
▁이씨	-5300
▁이외	-5301
▁일대	-5302
▁조회	-5303
▁치밀	-5304
▁해임	-5305
▁검거된	-5306
▁벌어진	-5307
▁실종된	-5308
▁쓰러진	-5309
▁이튿날	-5310
▁일부는	-5311
▁주식을	-5312
▁주장에	-5313
▁표창장	-5314
▁가혹행위	-5315
▁여성에게	-5316
▁아동청소년	-5317
▁국립과학수사연구원	-5318
▁쟁	-5319
사망	-5320
없는	-5321
화가	-5322
▁거의	-5323
▁김재	-5324
▁남양	-5325
▁다소	-5326
▁듣지	-5327
▁부대	-5328
▁부여	-5329
▁수업	-5330
▁주는	-5331
르다르	-5332
탈레반	-5333
파일러	-5334
(49)	-5335
▁못하게	-5336
▁받았고	-5337
▁사라진	-5338
▁사체를	-5339
▁연루된	-5340
▁위반한	-5341
▁있어서	-5342
▁차례에	-5343
▁총격전	-5344
▁특별한	-5345
▁관련기사	-5346
▁권력다툼	-5347
▁바르다르	-5348
▁운전자가	-5349
▁착취물을	-5350
ay	-5351
ne	-5352
▁△	-5353
▁찬	-5354
남을	-5355
내역	-5356
대응	-5357
만한	-5358
시는	-5359
유포	-5360
행한	-5361
.11	-5362
▁90	-5363
▁국토	-5364
▁노인	-5365
▁돈이	-5366
▁많아	-5367
▁분명	-5368
▁소홀	-5369
▁앉아	-5370
▁유형	-5371
▁임시	-5372
금지법	-5373
본부장	-5374
살까지	-5375
▁검사와	-5376
▁달하는	-5377
▁명했다	-5378
▁수사는	-5379
▁안타까	-5380
▁잇따라	-5381
▁발생하지	-5382
지방검찰청	-5383
▁서울북부지법	-5384
PE	-5385
▁엘	-5386
감이	-5387
거돈	-5388
담당	-5389
영상	-5390
▁강북	-5391
▁불응	-5392
▁일명	-5393
▁적도	-5394
▁포항	-5395
동에서	-5396
하려다	-5397
▁고발한	-5398
▁김씨와	-5399
▁사진은	-5400
▁시간을	-5401
▁여부에	-5402
▁여아의	-5403
▁최대한	-5404
▁횡령한	-5405
수사대는	-5406
▁생명에는	-5407
▁일대에서	-5408
▁화장실에서	-5409
▁겸	-5410
공원	-5411
박사	-5412
자신	-5413
전북	-5414
주가	-5415
했기	-5416
현직	-5417
▁소리	-5418
▁의도	-5419
▁이성	-5420
▁작은	-5421
▁저장	-5422
▁조성	-5423
▁추모	-5424
부지검	-5425
이춘재	-5426
홧김에	-5427
(41)	-5428
▁경위는	-5429
▁교사가	-5430
▁분석해	-5431
▁사유를	-5432
▁생명을	-5433
▁아동을	-5434
▁장면이	-5435
▁재심을	-5436
▁제작한	-5437
▁출소한	-5438
▁취재를	-5439
센터에서	-5440
▁조씨에게	-5441
▁확정됐다	-5442
▁압수수색했다	-5443
목을	-5444
방임	-5445
어도	-5446
주를	-5447
▁가벼	-5448
▁기대	-5449
▁몸에	-5450
▁배치	-5451
▁북구	-5452
▁사상	-5453
▁사형	-5454
▁앞선	-5455
▁이정	-5456
▁자매	-5457
▁정지	-5458
▁추천	-5459
▁출금	-5460
▁펜션	-5461
▁화물	-5462
가해자	-5463
만원에	-5464
사에게	-5465
에게도	-5466
(40)	-5467
▁국정감	-5468
▁상처가	-5469
▁알렸다	-5470
▁재수사	-5471
▁중상을	-5472
심에서도	-5473
▁전주지법	-5474
▁제기됐다	-5475
▁최후진술	-5476
▁해당한다	-5477
▁특정경제범죄가중처벌	-5478
▁쌓	-5479
대리	-5480
로커	-5481
지기	-5482
지휘	-5483
▁건넨	-5484
▁금은	-5485
▁누나	-5486
▁대변	-5487
▁보니	-5488
▁분양	-5489
▁적법	-5490
▁토지	-5491
▁해양	-5492
수집에	-5493
(57)	-5494
▁것인지	-5495
▁공판이	-5496
▁넘겨져	-5497
▁상담을	-5498
▁자백을	-5499
▁적었다	-5500
▁정부에	-5501
▁지내던	-5502
▁철저한	-5503
▁2010	-5504
▁근무하는	-5505
▁지금까지	-5506
▁추정하고	-5507
귀포	-5508
드는	-5509
들어	-5510
리한	-5511
사항	-5512
위조	-5513
입국	-5514
▁34	-5515
▁강한	-5516
▁거듭	-5517
▁고양	-5518
▁맞아	-5519
▁서한	-5520
▁외교	-5521
▁적절	-5522
▁편취	-5523
개월의	-5524
부인과	-5525
성착취	-5526
조두순	-5527
하지는	-5528
▁끝까지	-5529
▁답변을	-5530
▁대마초	-5531
▁무혐의	-5532
▁받아야	-5533
▁범위를	-5534
▁수원시	-5535
▁있으나	-5536
▁차는게	-5537
▁축구에	-5538
▁관련기관	-5539
▁받았다는	-5540
▁않는다고	-5541
자료수집에	-5542
...100	-5543
9@	-5544
▁삶	-5545
▁플	-5546
민주	-5547
본명	-5548
오는	-5549
의료	-5550
청사	-5551
트를	-5552
▁군의	-5553
▁남긴	-5554
▁내놓	-5555
▁높다	-5556
▁쉽게	-5557
▁언제	-5558
▁이제	-5559
▁참가	-5560
검찰이	-5561
수사팀	-5562
였다고	-5563
▁수익을	-5564
▁신병을	-5565
▁아내가	-5566
▁자체가	-5567
▁홧김에	-5568
거리에서	-5569
경찰청에	-5570
▁국회에서	-5571
▁뇌물수수	-5572
공무집행방해	-5573
9·	-5574
▁냈	-5575
▁줬	-5576
▁쿠	-5577
감은	-5578
약품	-5579
운영	-5580
이에	-5581
▁광진	-5582
▁나무	-5583
▁이종	-5584
건조물	-5585
공무원	-5586
만원이	-5587
▁범죄는	-5588
▁아내의	-5589
▁아동의	-5590
▁유사한	-5591
▁법무법인	-5592
▁송치됐다	-5593
70	-5594
▁캠	-5595
구가	-5596
뿐만	-5597
약처	-5598
점은	-5599
▁꺼내	-5600
▁넘긴	-5601
▁느끼	-5602
▁몰랐	-5603
▁복귀	-5604
▁사흘	-5605
▁오래	-5606
▁입수	-5607
▁죽음	-5608
▁진안	-5609
▁탈북	-5610
▁풀려	-5611
▁합성	-5612
▁회의	-5613
당했다	-5614
렸다는	-5615
양에게	-5616
역에서	-5617
▁마시던	-5618
▁수사해	-5619
▁형량을	-5620
스타그램	-5621
▁사건에서	-5622
▁상응하는	-5623
▁선고공판	-5624
▁제주지법	-5625
▁지시했다	-5626
▁하더라도	-5627
▁형사소송	-5628
▁관련해서는	-5629
▁흥	-5630
개로	-5631
도피	-5632
령을	-5633
섰다	-5634
차가	-5635
체가	-5636
▁겪고	-5637
▁김해	-5638
▁내지	-5639
▁세계	-5640
▁수리	-5641
▁얻은	-5642
▁원장	-5643
▁통상	-5644
▁해군	-5645
▁400	-5646
▁경찰을	-5647
▁대규모	-5648
▁수술을	-5649
▁윤씨의	-5650
▁출석한	-5651
▁회장을	-5652
▁경우에는	-5653
▁목소리를	-5654
▁아니었다	-5655
▁이춘재는	-5656
▁공소시효가	-5657
▁마찬가지로	-5658
▁전자발찌를	-5659
▁경찰조사에서	-5660
▁셈	-5661
말을	-5662
봐야	-5663
소는	-5664
조에	-5665
죄가	-5666
포폴	-5667
▁가서	-5668
▁공급	-5669
▁녹취	-5670
▁무관	-5671
▁배상	-5672
▁성북	-5673
▁신문	-5674
▁음성	-5675
▁인력	-5676
▁통신	-5677
▁향응	-5678
▁“20	-5679
▁이유에	-5680
▁있다며	-5681
▁정당한	-5682
▁흔적이	-5683
▁가능하다	-5684
▁성범죄를	-5685
▁소환조사	-5686
▁유지했다	-5687
▁풍	-5688
권리	-5689
만여	-5690
아직	-5691
연한	-5692
유도	-5693
제일	-5694
중한	-5695
출한	-5696
▁가는	-5697
▁광역	-5698
▁때리	-5699
▁범위	-5700
▁부서	-5701
▁수배	-5702
▁숙박	-5703
▁양모	-5704
▁지갑	-5705
▁해킹	-5706
▁회삿	-5707
센터에	-5708
(16)	-5709
(55)	-5710
▁국내로	-5711
▁노력을	-5712
▁위해서	-5713
▁의사가	-5714
▁장면을	-5715
▁태안읍	-5716
▁고유정이	-5717
▁대한민국	-5718
▁피해자인	-5719
▁공판기일을	-5720
▁디지털성범죄	-5721
▁됐	-5722
감금	-5723
구청	-5724
네트	-5725
들로	-5726
망을	-5727
액의	-5728
인사	-5729
정의	-5730
죄는	-5731
▁TV	-5732
▁끌어	-5733
▁단정	-5734
▁올리	-5735
▁자산	-5736
▁찾기	-5737
▁헌법	-5738
달라는	-5739
▁내용에	-5740
▁사안이	-5741
▁손가락	-5742
▁안으로	-5743
▁유흥주	-5744
▁학대로	-5745
이라면서	-5746
▁발표했다	-5747
▁변호인이	-5748
▁설명이다	-5749
▁용의자를	-5750
▁최근까지	-5751
▁탄원하고	-5752
▁걱	-5753
▁쇠	-5754
방이	-5755
주심	-5756
히는	-5757
▁누범	-5758
▁단독	-5759
▁민원	-5760
▁보상	-5761
▁뿐만	-5762
▁실질	-5763
▁아빠	-5764
▁자전	-5765
▁절단	-5766
▁점도	-5767
▁죄를	-5768
▁후속	-5769
례법상	-5770
시스템	-5771
었는데	-5772
일에도	-5773
▁SBS	-5774
▁동원해	-5775
▁비롯한	-5776
▁수수한	-5777
▁아이돌	-5778
▁조치가	-5779
▁뉴	-5780
▁몽	-5781
개혁	-5782
거리	-5783
기획	-5784
생명	-5785
수배	-5786
시를	-5787
이란	-5788
▁강의	-5789
▁광화	-5790
▁느꼈	-5791
▁당선	-5792
▁민사	-5793
▁방안	-5794
▁상가	-5795
▁수가	-5796
▁실패	-5797
▁야당	-5798
▁영화	-5799
▁임명	-5800
▁청소	-5801
▁피싱	-5802
▁피운	-5803
되기도	-5804
사건을	-5805
입니다	-5806
특례법	-5807
(38)	-5808
▁구입한	-5809
▁도착한	-5810
▁붙잡힌	-5811
▁상태에	-5812
▁생활을	-5813
▁신체를	-5814
▁아니고	-5815
복지시설	-5816
▁있었는지	-5817
▁자가격리	-5818
▁재물손괴	-5819
▁주민등록	-5820
▁휴대전화에	-5821
지방법원에서	-5822
사도	-5823
저히	-5824
조국	-5825
▁가중	-5826
▁결제	-5827
▁다리	-5828
▁뒤엔	-5829
▁무슨	-5830
▁수거	-5831
▁예비	-5832
▁온몸	-5833
▁저희	-5834
▁진입	-5835
▁친딸	-5836
어머니	-5837
의자는	-5838
(21)	-5839
▁계좌로	-5840
▁내용과	-5841
▁쓰레기	-5842
▁일어난	-5843
▁있다가	-5844
▁접수돼	-5845
▁추미애	-5846
▁아버지를	-5847
▁주거침입	-5848
▁필로폰을	-5849
▁프로파일러	-5850
▁문자메시지를	-5851
▁서부경찰서는	-5852
▁앙	-5853
▁척	-5854
사범	-5855
연대	-5856
▁55	-5857
▁국선	-5858
▁김용	-5859
▁단기	-5860
▁둘째	-5861
▁명을	-5862
▁법안	-5863
▁본사	-5864
▁신병	-5865
▁양성	-5866
▁원내	-5867
▁졸업	-5868
▁통제	-5869
자들은	-5870
재판부	-5871
(23)	-5872
▁같은날	-5873
▁공소장	-5874
▁데려가	-5875
▁방치한	-5876
▁살인을	-5877
▁얼마나	-5878
▁운전한	-5879
▁주차된	-5880
▁투입해	-5881
▁행위로	-5882
▁규정하고	-5883
▁김씨에게	-5884
▁산부인과	-5885
▁아니라는	-5886
▁재판부의	-5887
▁필요성이	-5888
▁Y	-5889
▁밥	-5890
가의	-5891
곳을	-5892
▁그만	-5893
▁배경	-5894
▁시키	-5895
▁자진	-5896
▁점과	-5897
▁현주	-5898
▁환매	-5899
▁흉기	-5900
청와대	-5901
(33)	-5902
▁가족의	-5903
▁공분을	-5904
▁나쁘다	-5905
▁나타나	-5906
▁때렸다	-5907
▁불출석	-5908
▁용서를	-5909
▁이번에	-5910
▁전까지	-5911
▁차관은	-5912
▁출입국	-5913
▁합의한	-5914
▁가족에게	-5915
▁대통령이	-5916
▁들이받은	-5917
▁불법행위	-5918
▁수사기록	-5919
▁해명했다	-5920
▁형사항소	-5921
▁꼽	-5922
▁펼	-5923
공항	-5924
▁KT	-5925
▁UN	-5926
▁고문	-5927
▁다가	-5928
▁바이	-5929
▁부러	-5930
▁비상	-5931
▁사장	-5932
▁양측	-5933
▁이듬	-5934
▁일어	-5935
▁임대	-5936
▁제압	-5937
▁지침	-5938
▁표한	-5939
리겠다	-5940
▁MBC	-5941
▁강력한	-5942
▁때리는	-5943
▁많았다	-5944
▁법조계	-5945
▁잘못된	-5946
▁준비한	-5947
▁중국인	-5948
▁고발장을	-5949
▁스마트폰	-5950
▁주택에서	-5951
▁참고사진	-5952
▁고위공직자	-5953
▁인스타그램	-5954
▁뭐	-5955
같은	-5956
계가	-5957
문화	-5958
밀히	-5959
석에	-5960
수당	-5961
▁검경	-5962
▁고지	-5963
▁국무	-5964
▁권리	-5965
▁뒤집	-5966
▁마치	-5967
▁부하	-5968
▁불편	-5969
▁뺨을	-5970
▁수술	-5971
▁쏟아	-5972
▁원치	-5973
▁일방	-5974
▁잔인	-5975
▁전력	-5976
▁정차	-5977
▁출발	-5978
공수처	-5979
는데도	-5980
유포한	-5981
▁2~3	-5982
▁다니는	-5983
▁달아나	-5984
▁대응을	-5985
▁데리고	-5986
▁사건도	-5987
▁아이는	-5988
▁이듬해	-5989
▁도주했다	-5990
▁미추홀구	-5991
▁부인하는	-5992
▁인정하지	-5993
▁파악했다	-5994
▁오피스텔에서	-5995
60	-5996
8·	-5997
▁겨	-5998
강도	-5999
영장	-6000
크웹	-6001
학원	-6002
▁SK	-6003
▁되면	-6004
▁숨겨	-6005
▁엘리	-6006
▁정서	-6007
▁좋은	-6008
▁주범	-6009
▁차장	-6010
▁횡단	-6011
도에서	-6012
하라는	-6013
▁마음을	-6014
▁매입한	-6015
▁열었다	-6016
▁이유는	-6017
▁일으킨	-6018
▁있느냐	-6019
▁자신과	-6020
▁증언을	-6021
▁처벌에	-6022
▁최씨가	-6023
▁하도록	-6024
▁시작됐다	-6025
▁어머니는	-6026
▁폭행으로	-6027
▁’	-6028
▁디	-6029
내는	-6030
소가	-6031
승현	-6032
시청	-6033
위로	-6034
주차	-6035
행사	-6036
▁금전	-6037
▁변사	-6038
▁장례	-6039
▁정모	-6040
▁좋아	-6041
▁지키	-6042
▁털어	-6043
시켰다	-6044
▁검거해	-6045
▁드러난	-6046
▁서귀포	-6047
▁시신은	-6048
▁없도록	-6049
▁인천의	-6050
▁찾았다	-6051
▁최숙현	-6052
▁추적해	-6053
▁회장과	-6054
▁고유정의	-6055
▁대표에게	-6056
▁보육교사	-6057
▁프로포폴	-6058
▁피의자로	-6059
▁주차장에서	-6060
▁피고인에게	-6061
▁아동학대범죄의	-6062
%,	-6063
▁덕	-6064
▁랜	-6065
격을	-6066
리던	-6067
조정	-6068
▁NH	-6069
▁구로	-6070
▁구치	-6071
▁내년	-6072
▁다녀	-6073
▁물품	-6074
▁법의	-6075
▁시각	-6076
▁열람	-6077
▁퇴직	-6078
렸다고	-6079
언론법	-6080
이지만	-6081
(17)	-6082
▁국수본	-6083
▁별도로	-6084
▁식약처	-6085
▁일당이	-6086
▁현행범	-6087
피해자의	-6088
▁김태현은	-6089
▁받았다고	-6090
▁변호사를	-6091
▁위반으로	-6092
▁추정된다	-6093
▁오토바이를	-6094
▁아동보호전문기관	-6095
ea	-6096
과를	-6097
들인	-6098
스터	-6099
지게	-6100
▁도운	-6101
▁매매	-6102
▁연수	-6103
▁오해	-6104
▁전기	-6105
▁지낸	-6106
▁출처	-6107
예방법	-6108
하느냐	-6109
(51)	-6110
▁구체적	-6111
▁남편을	-6112
▁능력이	-6113
▁몰랐다	-6114
▁신천지	-6115
▁착수한	-6116
▁확인을	-6117
▁기각됐다	-6118
▁않았지만	-6119
▁조사하는	-6120
▁수사기관에	-6121
간담	-6122
강력	-6123
기술	-6124
리의	-6125
변을	-6126
외국	-6127
원과	-6128
월을	-6129
택시	-6130
▁개시	-6131
▁기능	-6132
▁녹음	-6133
▁뜻을	-6134
▁마땅	-6135
▁미필	-6136
▁번복	-6137
▁설립	-6138
▁양산	-6139
▁여기	-6140
▁연인	-6141
▁이행	-6142
▁적시	-6143
▁전수	-6144
▁집어	-6145
▁확실	-6146
범행을	-6147
본부는	-6148
(45)	-6149
▁감정을	-6150
▁남편과	-6151
▁대마를	-6152
▁목격한	-6153
▁박원순	-6154
▁브로커	-6155
▁전과가	-6156
▁특정해	-6157
▁상태였던	-6158
▁신변보호	-6159
▁토로했다	-6160
▁화장실에	-6161
▁미성년자를	-6162
▁피해자들은	-6163
▁경기남부지방경찰청	-6164
강의	-6165
기춘	-6166
부로	-6167
생이	-6168
인득	-6169
합당	-6170
환경	-6171
회가	-6172
(50	-6173
▁고검	-6174
▁고용	-6175
▁그래	-6176
▁그에	-6177
▁늦게	-6178
▁또래	-6179
▁맡고	-6180
▁밝혔	-6181
▁빨리	-6182
▁선배	-6183
▁애플	-6184
▁종사	-6185
▁주한	-6186
▁차지	-6187
베이터	-6188
활동을	-6189
(34)	-6190
▁가까이	-6191
▁가족을	-6192
▁기성용	-6193
▁나서고	-6194
▁벗어나	-6195
▁시장이	-6196
▁재개발	-6197
교육청은	-6198
피해자는	-6199
해달라는	-6200
▁인정한다	-6201
▁직접적인	-6202
▁저질렀다고	-6203
▁형사처벌을	-6204
▁옵티머스자산운용	-6205
?”	-6206
▁겁	-6207
고에	-6208
물로	-6209
송치	-6210
인터	-6211
패를	-6212
▁5·	-6213
▁반환	-6214
▁버린	-6215
▁보냈	-6216
▁부근	-6217
▁않게	-6218
▁알지	-6219
▁이익	-6220
▁재개	-6221
▁최윤	-6222
▁파일	-6223
▁해제	-6224
▁헬기	-6225
시키는	-6226
..."	-6227
▁150	-6228
▁분석한	-6229
▁사정이	-6230
▁송파구	-6231
▁신고해	-6232
▁아기를	-6233
▁오거돈	-6234
▁있으면	-6235
▁장관과	-6236
▁주장은	-6237
▁지인의	-6238
▁진술과	-6239
▁청원글	-6240
▁친구를	-6241
▁피하기	-6242
▁행각을	-6243
위원회의	-6244
▁대통령은	-6245
▁면허취소	-6246
▁법률위반	-6247
▁식당에서	-6248
▁어렵다고	-6249
▁외할머니	-6250
▁인정하기	-6251
▁증언했다	-6252
▁청주지법	-6253
1·	-6254
듀스	-6255
심리	-6256
여서	-6257
위터	-6258
이버	-6259
제작	-6260
주기	-6261
해준	-6262
현장	-6263
▁강모	-6264
▁시세	-6265
▁신용	-6266
▁예고	-6267
▁원에	-6268
▁출생	-6269
▁특가	-6270
3000	-6271
▁가족은	-6272
▁금감원	-6273
▁눈물을	-6274
▁생각해	-6275
▁의무가	-6276
▁잡혔다	-6277
▁정신질환	-6278
▁지인에게	-6279
▁취업제한을	-6280
▁필요하다고	-6281
~4	-6282
▁닿	-6283
▁묘	-6284
기한	-6285
대출	-6286
동이	-6287
명예	-6288
지의	-6289
▁동네	-6290
▁방에	-6291
▁벤츠	-6292
▁비닐	-6293
▁선처	-6294
▁완료	-6295
▁이규	-6296
▁초범	-6297
▁태워	-6298
▁환자	-6299
싸움을	-6300
▁결과는	-6301
▁계약을	-6302
▁기록을	-6303
▁사이로	-6304
▁자전거	-6305
▁직원은	-6306
▁책임이	-6307
투자증권	-6308
▁공공기관	-6309
▁공무원이	-6310
▁기자들과	-6311
▁수사의뢰	-6312
▁조주빈이	-6313
▁예정이라고	-6314
▁웅	-6315
▁횟	-6316
개인	-6317
기기	-6318
남편	-6319
대교	-6320
배임	-6321
피뎀	-6322
▁동구	-6323
▁야간	-6324
▁여수	-6325
법소년	-6326
▁광화문	-6327
▁발생할	-6328
▁밝히기	-6329
▁상태를	-6330
▁서류를	-6331
▁수사한	-6332
▁죄책이	-6333
전자발찌	-6334
▁1500	-6335
▁유료회원	-6336
▁이어졌다	-6337
▁파악된다	-6338
▁주장했지만	-6339
▁○	-6340
다며	-6341
되며	-6342
수재	-6343
작업	-6344
▁48	-6345
▁매출	-6346
▁비해	-6347
▁실랑	-6348
▁심한	-6349
▁평생	-6350
겠지만	-6351
(59)	-6352
(61)	-6353
▁계기로	-6354
▁대출을	-6355
▁돌아가	-6356
▁방지를	-6357
▁부장검	-6358
▁위협한	-6359
▁의뢰한	-6360
▁이들에	-6361
▁제외한	-6362
▁제작진	-6363
▁트위터	-6364
▁대통령의	-6365
▁삼성전자	-6366
▁양형기준	-6367
▁의혹으로	-6368
▁특수협박	-6369
▁서울경찰청은	-6370
▁틈	-6371
군에	-6372
권익	-6373
비로	-6374
서와	-6375
주거	-6376
지어	-6377
티즌	-6378
%),	-6379
▁나는	-6380
▁담임	-6381
▁목사	-6382
▁소견	-6383
▁오빠	-6384
▁채무	-6385
▁타살	-6386
관계망	-6387
▁가족과	-6388
▁고려할	-6389
▁고양이	-6390
▁뇌물을	-6391
▁떨어져	-6392
▁또다른	-6393
▁사인을	-6394
▁주겠다	-6395
▁다음날인	-6396
▁반성문을	-6397
▁사랑제일	-6398
▁진행한다	-6399
▁엘리베이터	-6400
▁피해자들과	-6401
5/	-6402
▁며	-6403
것이	-6404
드림	-6405
부따	-6406
세로	-6407
투비	-6408
▁교체	-6409
▁그렇	-6410
▁깊은	-6411
▁마을	-6412
▁명시	-6413
▁보통	-6414
▁봐야	-6415
▁비율	-6416
▁양이	-6417
▁왼쪽	-6418
▁이루	-6419
▁이불	-6420
▁찾지	-6421
▁추돌	-6422
▁축구	-6423
▁치어	-6424
▁코스	-6425
▁화면	-6426
▁흔적	-6427
으로써	-6428
2000	-6429
▁감안해	-6430
▁관심을	-6431
▁동거녀	-6432
▁무거운	-6433
▁식사를	-6434
▁억울한	-6435
▁자백한	-6436
▁첩보를	-6437
▁합리적	-6438
▁횡단보	-6439
▁결심공판	-6440
▁자본시장	-6441
▁전달했다	-6442
▁확정했다	-6443
▁m	-6444
성호	-6445
오늘	-6446
팀을	-6447
▁가스	-6448
▁간음	-6449
▁같아	-6450
▁낮은	-6451
▁던진	-6452
▁변제	-6453
▁여권	-6454
▁의문	-6455
▁회피	-6456
아이를	-6457
(60)	-6458
▁교수를	-6459
▁규모의	-6460
▁남학생	-6461
▁벌금에	-6462
▁셈이다	-6463
▁신도시	-6464
▁열리는	-6465
▁접근해	-6466
▁직위해	-6467
▁학교에	-6468
▁공범으로	-6469
▁사이트에	-6470
▁조치했다	-6471
▁처음으로	-6472
▁혐의로도	-6473
▁페이스북에	-6474
▁인정하면서도	-6475
▁최후진술에서	-6476
)©	-6477
되어	-6478
렸던	-6479
리스	-6480
망이	-6481
상습	-6482
약을	-6483
워서	-6484
증이	-6485
▁갚지	-6486
▁느낀	-6487
▁모아	-6488
▁무릎	-6489
▁쉽지	-6490
▁실행	-6491
▁싶은	-6492
▁옆에	-6493
▁요양	-6494
▁정례	-6495
▁집안	-6496
▁체류	-6497
▁호흡	-6498
관계가	-6499
군에게	-6500
으로는	-6501
(62)	-6502
▁과태료	-6503
▁국적의	-6504
▁동기와	-6505
▁만취한	-6506
▁부부의	-6507
▁사문서	-6508
▁유출한	-6509
▁좋겠다	-6510
▁진단을	-6511
▁협박을	-6512
▁1988	-6513
▁당했다는	-6514
▁사회봉사	-6515
▁인정하는	-6516
▁촉구하는	-6517
▁판결했다	-6518
▁경찰관에게	-6519
▁선고공판에서	-6520
yn	-6521
▁X	-6522
▁찢	-6523
니터	-6524
뒀다	-6525
방화	-6526
법이	-6527
양과	-6528
조건	-6529
▁남구	-6530
▁미제	-6531
▁바뀌	-6532
▁원인	-6533
▁이탈	-6534
▁장난	-6535
▁전신	-6536
▁챙겨	-6537
▁퇴원	-6538
▁합격	-6539
▁현실	-6540
▁회유	-6541
대학교	-6542
▁갈등을	-6543
▁공판에	-6544
▁광주시	-6545
▁남동구	-6546
▁누군가	-6547
▁동대문	-6548
▁성남시	-6549
▁수도권	-6550
▁안인득	-6551
▁의무를	-6552
▁조사는	-6553
▁중에는	-6554
▁청구한	-6555
▁투자를	-6556
▁경주시청	-6557
▁목소리가	-6558
▁부산에서	-6559
▁부장검사	-6560
▁어머니를	-6561
▁공소사실에	-6562
관계망서비스	-6563
80	-6564
▁H	-6565
▁윗	-6566
구로	-6567
금속	-6568
나마	-6569
왔고	-6570
집을	-6571
채용	-6572
책을	-6573
▁고령	-6574
▁꾸려	-6575
▁마트	-6576
▁매일	-6577
▁무게	-6578
▁설득	-6579
▁썼다	-6580
▁언니	-6581
▁중한	-6582
▁질식	-6583
▁치안	-6584
그러나	-6585
법위반	-6586
변호사	-6587
억원에	-6588
었다고	-6589
(18)	-6590
▁0.1	-6591
▁격분해	-6592
▁결정될	-6593
▁댓글을	-6594
▁시작된	-6595
▁영업을	-6596
▁이성윤	-6597
▁취지다	-6598
▁측에서	-6599
▁폭언을	-6600
▁사무실을	-6601
▁운전기사	-6602
▁행정안전	-6603
▁대법원에서	-6604
▁긴급체포했다	-6605
▁음주운전으로	-6606
▁●	-6607
고검	-6608
롭게	-6609
보이	-6610
전에	-6611
주인	-6612
지인	-6613
특히	-6614
회계	-6615
DNA	-6616
▁32	-6617
▁경력	-6618
▁땅을	-6619
▁매수	-6620
▁승인	-6621
▁신한	-6622
▁엉덩	-6623
▁인용	-6624
▁찔린	-6625
사고를	-6626
▁남편의	-6627
▁등이다	-6628
▁보호를	-6629
▁불거진	-6630
▁심하게	-6631
▁일주일	-6632
▁있어야	-6633
▁종업원	-6634
▁직원의	-6635
▁진술에	-6636
▁피해회	-6637
▁2006	-6638
▁가족들이	-6639
▁근무하던	-6640
▁누범기간	-6641
▁의심하고	-6642
▁질문에는	-6643
▁참작했다	-6644
▁피의자를	-6645
▁휴대폰을	-6646
심의위원회	-6647
▁소방당국은	-6648
▁양형이유를	-6649
▁여자친구를	-6650
▁필요하다는	-6651
▁경기남부경찰청	-6652
·2	-6653
감정	-6654
등에	-6655
모든	-6656
비용	-6657
주면	-6658
청탁	-6659
출소	-6660
층에	-6661
판을	-6662
허위	-6663
ynn	-6664
▁yy	-6665
▁경고	-6666
▁기술	-6667
▁날짜	-6668
▁맞은	-6669
▁보증	-6670
▁부위	-6671
▁상반	-6672
▁아는	-6673
▁여당	-6674
▁이때	-6675
▁체결	-6676
▁환전	-6677
금으로	-6678
스럽다	-6679
으려고	-6680
ynnn	-6681
▁가까운	-6682
▁네티즌	-6683
▁도움이	-6684
▁말하며	-6685
▁밝혀진	-6686
▁본인의	-6687
▁설치한	-6688
▁수시로	-6689
▁없지만	-6690
▁올라온	-6691
▁의원을	-6692
▁이모씨	-6693
▁있으니	-6694
▁자리에	-6695
▁적절한	-6696
▁절차에	-6697
▁정부가	-6698
▁출산한	-6699
▁해달라	-6700
▁받았지만	-6701
▁여성들의	-6702
▁정치자금	-6703
▁진행된다	-6704
▁확보하고	-6705
▁yyynnn	-6706
▁받아들여지지	-6707
▁특정경제범죄	-6708
▁F	-6709
다니	-6710
라우	-6711
먼트	-6712
북부	-6713
수칙	-6714
지마	-6715
▁공갈	-6716
▁그간	-6717
▁김창	-6718
▁매달	-6719
▁명품	-6720
▁무자	-6721
▁물건	-6722
▁버려	-6723
▁보다	-6724
▁복무	-6725
▁속인	-6726
▁오랜	-6727
▁웅동	-6728
▁지지	-6729
▁평균	-6730
럼에도	-6731
상태로	-6732
지난해	-6733
회의를	-6734
▁600	-6735
▁모니터	-6736
▁모텔에	-6737
▁빼앗아	-6738
▁소지한	-6739
▁손해를	-6740
▁없었고	-6741
▁정부는	-6742
▁청구를	-6743
▁최윤나	-6744
▁파악한	-6745
▁벌어졌다	-6746
▁서울동부	-6747
▁용서받지	-6748
▁자수했다	-6749
▁영장실질심사	-6750
감찰	-6751
내고	-6752
량을	-6753
유족	-6754
점에	-6755
증명	-6756
지며	-6757
▁곳에	-6758
▁그냥	-6759
▁던져	-6760
▁뒤로	-6761
▁만약	-6762
▁못할	-6763
▁바라	-6764
▁본다	-6765
▁사후	-6766
▁생산	-6767
▁앞둔	-6768
▁적힌	-6769
▁주말	-6770
▁질의	-6771
▁철도	-6772
▁초래	-6773
▁투신	-6774
처분을	-6775
▁국민적	-6776
▁도박을	-6777
▁손씨는	-6778
▁수법이	-6779
▁왕기춘	-6780
▁의혹은	-6781
▁입증할	-6782
▁정치인	-6783
▁촬영해	-6784
▁피해액	-6785
생명과학	-6786
▁강도살인	-6787
▁사용하는	-6788
▁사이에서	-6789
▁어렵다는	-6790
▁엄정하게	-6791
▁카메라를	-6792
▁학생들이	-6793
9,	-6794
방조	-6795
법은	-6796
요청	-6797
체류	-6798
화된	-6799
확인	-6800
▁74	-6801
▁PD	-6802
▁검은	-6803
▁권유	-6804
▁글쓴	-6805
▁대가	-6806
▁떠나	-6807
▁멍이	-6808
▁미흡	-6809
▁쓰고	-6810
▁안팎	-6811
▁장씨	-6812
▁저는	-6813
▁전원	-6814
▁줄어	-6815
▁판례	-6816
조주빈	-6817
▁내용도	-6818
▁문자를	-6819
▁살인죄	-6820
▁수색을	-6821
▁알고도	-6822
▁여기에	-6823
▁완전히	-6824
▁윤씨가	-6825
▁졸피뎀	-6826
▁학생이	-6827
▁행패를	-6828
▁확정된	-6829
수사본부	-6830
▁들이받아	-6831
▁의심되는	-6832
▁직위해제	-6833
▁교통사고를	-6834
▁텔레그램에서	-6835
▁코오롱생명과학	-6836
am	-6837
▁J	-6838
▁e	-6839
▁컨	-6840
▁휩	-6841
같이	-6842
둥이	-6843
소연	-6844
약한	-6845
왔던	-6846
종합	-6847
죄송	-6848
▁갑질	-6849
▁개혁	-6850
▁건너	-6851
▁기숙	-6852
▁멈춰	-6853
▁분위	-6854
▁선발	-6855
▁소주	-6856
▁손상	-6857
▁연령	-6858
▁원고	-6859
▁자문	-6860
▁적색	-6861
▁정무	-6862
▁정해	-6863
▁증권	-6864
▁형식	-6865
▁후에	-6866
겠느냐	-6867
단에서	-6868
연구소	-6869
으므로	-6870
작업을	-6871
진술을	-6872
케이션	-6873
▁갈무리	-6874
▁감금한	-6875
▁경위에	-6876
▁그랬다	-6877
▁명확히	-6878
▁선수의	-6879
▁송치된	-6880
▁열렸다	-6881
▁의식이	-6882
▁절차가	-6883
▁정신병	-6884
▁하기도	-6885
▁했으며	-6886
▁검찰에서	-6887
▁검찰총장	-6888
▁경찰에게	-6889
▁광주고법	-6890
▁국가대표	-6891
▁국내에서	-6892
▁제목으로	-6893
▁해상에서	-6894
▁비밀번호를	-6895
▁여성청소년	-6896
▁체포영장을	-6897
▁사회복무요원	-6898
▁혈중알코올농도	-6899
LH	-6900
▁났	-6901
▁냉	-6902
▁멱	-6903
▁쳐	-6904
교수	-6905
국가	-6906
내기	-6907
데도	-6908
바닥	-6909
성은	-6910
엄마	-6911
연맹	-6912
의한	-6913
일부	-6914
창호	-6915
혐오	-6916
환송	-6917
▁강동	-6918
▁검증	-6919
▁계부	-6920
▁계열	-6921
▁내에	-6922
▁누가	-6923
▁밀반	-6924
▁수산	-6925
▁약물	-6926
▁엄격	-6927
▁일고	-6928
▁최씨	-6929
▁풀어	-6930
▁해소	-6931
▁고소를	-6932
▁교육을	-6933
▁동일한	-6934
▁밝히지	-6935
▁범죄인	-6936
▁불특정	-6937
▁속에서	-6938
▁얼굴에	-6939
▁얼굴이	-6940
▁의붓딸	-6941
▁일부가	-6942
▁지원을	-6943
▁진행해	-6944
▁찾아와	-6945
▁추적에	-6946
▁화성시	-6947
네트워크	-6948
재물손괴	-6949
했음에도	-6950
▁성추행을	-6951
▁인터넷에	-6952
▁적용됐다	-6953
▁조주빈과	-6954
부경찰서에	-6955
▁청탁금지법	-6956
▁허위사실을	-6957
▁웹	-6958
근무	-6959
르며	-6960
보안	-6961
엔터	-6962
월호	-6963
절차	-6964
중인	-6965
지면	-6966
▁걸친	-6967
▁관측	-6968
▁구축	-6969
▁급여	-6970
▁기피	-6971
▁내달	-6972
▁말고	-6973
▁몰던	-6974
▁몰수	-6975
▁악의	-6976
▁외압	-6977
▁유류	-6978
▁추격	-6979
국제공	-6980
당국은	-6981
사항을	-6982
았지만	-6983
어린이	-6984
였다는	-6985
(15)	-6986
2020	-6987
▁구성된	-6988
▁동기를	-6989
▁마음이	-6990
▁박씨가	-6991
▁빼앗은	-6992
▁안씨는	-6993
▁여부와	-6994
▁여지가	-6995
▁참작해	-6996
▁활용해	-6997
▁경찰서에	-6998
▁금융기관	-6999
▁모르겠다	-7000
▁못하도록	-7001
▁불법으로	-7002
▁어머니와	-7003
▁직원들이	-7004
▁판단된다	-7005
▁가혹행위를	-7006
8%	-7007
▁읽	-7008
단의	-7009
대행	-7010
든지	-7011
수도	-7012
▁49	-7013
▁가던	-7014
▁갔다	-7015
▁골목	-7016
▁군이	-7017
▁길을	-7018
▁김정	-7019
▁믿고	-7020
▁보수	-7021
▁연행	-7022
▁오픈	-7023
▁옥살	-7024
▁의정	-7025
▁일병	-7026
▁전파	-7027
▁절반	-7028
▁조율	-7029
▁찍어	-7030
▁차로	-7031
▁채택	-7032
▁측면	-7033
▁형성	-7034
▁후회	-7035
기일을	-7036
단으로	-7037
미디어	-7038
▁구속돼	-7039
▁금액을	-7040
▁높였다	-7041
▁명의의	-7042
▁부모는	-7043
▁부탁을	-7044
▁사실에	-7045
▁사회에	-7046
▁유리창	-7047
▁의원과	-7048
▁이상이	-7049
▁임직원	-7050
▁지인을	-7051
▁치료가	-7052
리케이션	-7053
▁5·18	-7054
▁고등학생	-7055
▁단계에서	-7056
▁상해치사	-7057
▁시민들이	-7058
▁아파트에	-7059
▁적극적인	-7060
▁직원에게	-7061
범죄수사처	-7062
▁사무실에서	-7063
▁수사기관에서	-7064
급을	-7065
들께	-7066
설수	-7067
실이	-7068
오지	-7069
의원	-7070
하우	-7071
▁구두	-7072
▁김천	-7073
▁당내	-7074
▁마셨	-7075
▁말해	-7076
▁맡아	-7077
▁산하	-7078
▁여고	-7079
▁와서	-7080
▁잃고	-7081
▁자동	-7082
▁치사	-7083
▁포털	-7084
됐다가	-7085
병으로	-7086
사무소	-7087
수사에	-7088
엔터테	-7089
여만원	-7090
▁검토할	-7091
▁고씨는	-7092
▁귀금속	-7093
▁다르다	-7094
▁동선을	-7095
▁만이다	-7096
▁비교적	-7097
▁생각이	-7098
▁요구에	-7099
▁의견이	-7100
▁적용할	-7101
▁차량의	-7102
▁취하지	-7103
▁기준으로	-7104
▁성범죄자	-7105
▁수사하는	-7106
▁여성들을	-7107
▁원내대표	-7108
▁이사장은	-7109
▁인물이다	-7110
▁있습니다	-7111
▁추가기소	-7112
교도소에서	-7113
▁운영하면서	-7114
▁사회관계망서비스	-7115
37	-7116
FM	-7117
~6	-7118
▁똑	-7119
▁웃	-7120
강요	-7121
급여	-7122
리아	-7123
변론	-7124
북전	-7125
위험	-7126
쿨존	-7127
형주	-7128
휴대	-7129
▁44	-7130
▁감소	-7131
▁나누	-7132
▁나지	-7133
▁누워	-7134
▁문서	-7135
▁울먹	-7136
▁집합	-7137
▁측정	-7138
▁학원	-7139
▁희생	-7140
러시아	-7141
연수원	-7142
혐의를	-7143
▁700	-7144
▁관계가	-7145
▁녹취록	-7146
▁대상에	-7147
▁된다는	-7148
▁말하는	-7149
▁방문해	-7150
▁범행동	-7151
▁사과를	-7152
▁응하지	-7153
▁장씨의	-7154
▁참여한	-7155
▁코스닥	-7156
▁해운대	-7157
지원에서	-7158
피해자와	-7159
▁기각하고	-7160
▁수사지휘	-7161
▁이어가고	-7162
▁최종득표	-7163
▁출석하지	-7164
▁피고인에	-7165
▁금융감독원	-7166
▁옮겨졌으나	-7167
▁피해자로부터	-7168
~5	-7169
다면	-7170
상품	-7171
자들	-7172
제도	-7173
팀장	-7174
▁걱정	-7175
▁교정	-7176
▁담은	-7177
▁모임	-7178
▁실무	-7179
▁일선	-7180
▁질러	-7181
▁테이	-7182
▁해덕	-7183
▁휘둘	-7184
범죄를	-7185
설수설	-7186
스럽게	-7187
시간이	-7188
▁같은달	-7189
▁곳에서	-7190
▁공개할	-7191
▁다크웹	-7192
▁들어와	-7193
▁메시지	-7194
▁못했고	-7195
▁무죄가	-7196
▁부사장	-7197
▁식으로	-7198
▁위험한	-7199
▁이스타	-7200
▁임의로	-7201
▁전화해	-7202
▁중형이	-7203
▁취득한	-7204
▁포함돼	-7205
▁현재는	-7206
▁변호인단	-7207
▁신빙성이	-7208
▁씨로부터	-7209
▁아이들을	-7210
▁원룸에서	-7211
▁직원들의	-7212
▁동물보호법	-7213
36	-7214
▁티	-7215
감과	-7216
값을	-7217
금과	-7218
물에	-7219
미로	-7220
별로	-7221
세탁	-7222
심도	-7223
주로	-7224
▁권익	-7225
▁김영	-7226
▁나간	-7227
▁딸은	-7228
▁사범	-7229
▁성향	-7230
▁시기	-7231
▁시위	-7232
▁위탁	-7233
▁정밀	-7234
▁채로	-7235
▁포기	-7236
▁포르	-7237
▁혹은	-7238
관계에	-7239
미성년	-7240
사방해	-7241
▁달한다	-7242
▁대학교	-7243
▁비판이	-7244
▁선수는	-7245
▁손정우	-7246
▁신상이	-7247
▁실시간	-7248
▁어려울	-7249
▁운영진	-7250
▁자체를	-7251
▁카지노	-7252
▁계속해서	-7253
▁서대문구	-7254
▁특수폭행	-7255
▁폭행하는	-7256
▁관계자들이	-7257
▁압수수색해	-7258
▁의붓아들을	-7259
4/	-7260
▁닫	-7261
모임	-7262
미가	-7263
총장	-7264
침해	-7265
토지	-7266
호를	-7267
환자	-7268
회장	-7269
▁39	-7270
▁56	-7271
▁내릴	-7272
▁논문	-7273
▁대중	-7274
▁몰아	-7275
▁벗어	-7276
▁분당	-7277
▁생긴	-7278
▁일산	-7279
▁자해	-7280
▁주인	-7281
▁찍힌	-7282
▁폐지	-7283
버닝썬	-7284
범죄로	-7285
보다는	-7286
분까지	-7287
여명의	-7288
하기는	-7289
...”	-7290
▁물었다	-7291
▁방법을	-7292
▁방송을	-7293
▁분량의	-7294
▁성접대	-7295
▁신뢰를	-7296
▁심지어	-7297
▁아이디	-7298
▁않겠다	-7299
▁양천구	-7300
▁의도가	-7301
▁일었다	-7302
▁있다면	-7303
▁최씨의	-7304
▁침입한	-7305
등에관한	-7306
행사방해	-7307
▁사이트를	-7308
▁위해서는	-7309
▁위험성이	-7310
▁서초경찰서	-7311
▁강남경찰서는	-7312
▁유포하겠다고	-7313
네트워크서비스	-7314
55	-7315
▁뽑	-7316
▁앵	-7317
가정	-7318
경이	-7319
공정	-7320
구리	-7321
도한	-7322
독자	-7323
식에	-7324
안부	-7325
의사	-7326
자고	-7327
▁그림	-7328
▁담배	-7329
▁도내	-7330
▁되자	-7331
▁밀어	-7332
▁바꾸	-7333
▁보지	-7334
▁불만	-7335
▁수령	-7336
▁원생	-7337
▁쫓아	-7338
▁트럭	-7339
▁형법	-7340
관에서	-7341
이기도	-7342
이라면	-7343
했었다	-7344
행위에	-7345
▁관련이	-7346
▁명백한	-7347
▁방문한	-7348
▁사기를	-7349
▁선수가	-7350
▁없다며	-7351
▁우울증	-7352
▁자료에	-7353
▁착취물	-7354
▁파악할	-7355
명예훼손	-7356
하더라도	-7357
▁2007	-7358
▁가능성은	-7359
▁가정폭력	-7360
▁군사경찰	-7361
▁모니터링	-7362
▁변호인을	-7363
▁파기환송	-7364
▁포함됐다	-7365
▁횡설수설	-7366
▁법무부장관	-7367
▁부당하다고	-7368
▁집행유예가	-7369
▁해당한다고	-7370
▁고위공직자범죄수사처	-7371
38	-7372
or	-7373
▁돕	-7374
건강	-7375
농단	-7376
드를	-7377
리게	-7378
사한	-7379
시가	-7380
중천	-7381
치며	-7382
통을	-7383
▁깨고	-7384
▁나를	-7385
▁단지	-7386
▁마감	-7387
▁발송	-7388
▁보좌	-7389
▁봉사	-7390
▁붙어	-7391
▁산업	-7392
▁살포	-7393
▁의학	-7394
▁제재	-7395
▁짧게	-7396
▁총책	-7397
▁친부	-7398
▁폐기	-7399
청에서	-7400
(63)	-7401
▁경우도	-7402
▁들어온	-7403
▁부평구	-7404
▁사장은	-7405
▁술접대	-7406
▁알았다	-7407
▁앙심을	-7408
▁의원에	-7409
▁이번이	-7410
▁재산을	-7411
▁제보자	-7412
엔터테인	-7413
▁남편에게	-7414
▁불법체류	-7415
▁의견서를	-7416
▁정상적인	-7417
▁진행되는	-7418
▁불구속기소	-7419
▁양형부당을	-7420
▁인정하지만	-7421
-2	-7422
닉네	-7423
락을	-7424
부정	-7425
브스	-7426
세가	-7427
에만	-7428
추지	-7429
(60	-7430
▁거제	-7431
▁국세	-7432
▁때도	-7433
▁무렵	-7434
▁승강	-7435
▁시켜	-7436
▁안모	-7437
▁앵커	-7438
▁연쇄	-7439
▁재정	-7440
▁적혀	-7441
▁제품	-7442
▁진화	-7443
▁측근	-7444
▁특혜	-7445
▁포토	-7446
▁피를	-7447
였지만	-7448
하고자	-7449
(44)	-7450
(68)	-7451
▁국내에	-7452
▁기사를	-7453
▁보호에	-7454
▁비서실	-7455
▁소견을	-7456
▁아닌가	-7457
▁얘기를	-7458
▁여동생	-7459
▁이르는	-7460
▁일당은	-7461
▁있었을	-7462
▁정부의	-7463
▁제보를	-7464
▁조사해	-7465
▁주변을	-7466
▁지시에	-7467
▁차에서	-7468
▁가해자가	-7469
▁드러냈다	-7470
▁발부받아	-7471
▁보건복지	-7472
▁부당하다	-7473
▁살해하려	-7474
▁없었다는	-7475
▁운전면허	-7476
▁조두순은	-7477
▁지속적인	-7478
▁처해졌다	-7479
▁해당하지	-7480
보이스피싱	-7481
▁들여다보고	-7482
▁조주빈에게	-7483
▁서울중앙지검에	-7484
3/	-7485
UV	-7486
▁W	-7487
규직	-7488
량이	-7489
류를	-7490
만인	-7491
서로	-7492
수막	-7493
신이	-7494
일은	-7495
테이	-7496
확한	-7497
히지	-7498
200	-7499
▁공연	-7500
▁광명	-7501
▁내세	-7502
▁다짐	-7503
▁동창	-7504
▁됐고	-7505
▁말도	-7506
▁법령	-7507
▁비행	-7508
▁수습	-7509
▁실태	-7510
▁아침	-7511
▁아프	-7512
▁영리	-7513
▁자치	-7514
▁지명	-7515
▁진범	-7516
▁탓에	-7517
▁현대	-7518
▁화를	-7519
시간에	-7520
억원이	-7521
의정부	-7522
절차를	-7523
했다며	-7524
▁국정원	-7525
▁기간이	-7526
▁다쳤다	-7527
▁돌려보	-7528
▁말씀을	-7529
▁멱살을	-7530
▁모녀를	-7531
▁부모님	-7532
▁불리는	-7533
▁성실히	-7534
▁여성과	-7535
▁유력한	-7536
▁이득을	-7537
▁자녀를	-7538
▁장씨가	-7539
▁준강간	-7540
▁탈북민	-7541
▁판단은	-7542
▁헤어진	-7543
병원으로	-7544
자치단체	-7545
▁복지시설	-7546
▁입시비리	-7547
▁지역에서	-7548
▁추적하고	-7549
▁호소하고	-7550
엔터테인먼트	-7551
▁구속기소됐다	-7552
▁사랑제일교회	-7553
39	-7554
oo	-7555
▁굉	-7556
▁굴	-7557
▁궁	-7558
▁꼭	-7559
▁뱉	-7560
간에	-7561
갑을	-7562
되게	-7563
배우	-7564
슬론	-7565
쳤고	-7566
09@	-7567
▁가려	-7568
▁걷어	-7569
▁계산	-7570
▁대포	-7571
▁듯한	-7572
▁배심	-7573
▁상세	-7574
▁앱을	-7575
▁유발	-7576
▁유착	-7577
▁이원	-7578
▁일로	-7579
▁잇따	-7580
▁적지	-7581
▁제정	-7582
▁채취	-7583
▁평택	-7584
▁허벅	-7585
년에는	-7586
서에서	-7587
시에서	-7588
애슬론	-7589
8000	-7590
▁160	-7591
▁도로에	-7592
▁들어갔	-7593
▁받았던	-7594
▁별개로	-7595
▁윤씨를	-7596
▁입건한	-7597
▁증인신	-7598
▁총경은	-7599
▁현수막	-7600
▁경찰청에	-7601
▁구속기간	-7602
▁들어가는	-7603
▁사람에게	-7604
▁조두순이	-7605
▁출소했다	-7606
▁폭력행위	-7607
▁마지막으로	-7608
처벌등에관한	-7609
▁틀	-7610
광훈	-7611
뱅크	-7612
술에	-7613
어버	-7614
장도	-7615
저는	-7616
조회	-7617
트코	-7618
평등	-7619
ene	-7620
▁BJ	-7621
▁가출	-7622
▁바다	-7623
▁성공	-7624
▁쓰지	-7625
▁업소	-7626
▁예견	-7627
▁옥중	-7628
▁이례	-7629
▁정한	-7630
▁존중	-7631
▁주점	-7632
▁측과	-7633
▁크고	-7634
▁휘발	-7635
까지는	-7636
부에서	-7637
신고가	-7638
신청을	-7639
임에도	-7640
자금을	-7641
통합당	-7642
▁경우는	-7643
▁관악구	-7644
▁노원구	-7645
▁늘었다	-7646
▁맞지만	-7647
▁목사는	-7648
▁미공개	-7649
▁반응이	-7650
▁별도의	-7651
▁보석을	-7652
▁시작한	-7653
▁심정지	-7654
▁언급한	-7655
▁이씨를	-7656
▁이용구	-7657
▁장소를	-7658
▁적용된	-7659
▁주민이	-7660
▁중상해	-7661
▁차량은	-7662
▁청구된	-7663
▁추적을	-7664
▁태어난	-7665
▁투숙객	-7666
범죄조사	-7667
증거인멸	-7668
▁사망사건	-7669
▁수사력을	-7670
▁신청했고	-7671
▁영등포구	-7672
▁있었으며	-7673
▁조주빈을	-7674
▁존속살해	-7675
▁촉법소년	-7676
▁특례법상	-7677
라이애슬론	-7678
▁관계자들을	-7679
▁기소했다고	-7680
▁장애인복지시설	-7681
▁특정범죄가중처벌법상	-7682
ic	-7683
ye	-7684
▁콘	-7685
가에	-7686
결정	-7687
도시	-7688
만명	-7689
많은	-7690
요한	-7691
이상	-7692
일반	-7693
젊은	-7694
추가	-7695
폐소	-7696
▁강압	-7697
▁기울	-7698
▁눌러	-7699
▁달려	-7700
▁대량	-7701
▁뒤를	-7702
▁든다	-7703
▁발각	-7704
▁선원	-7705
▁속행	-7706
▁손과	-7707
▁쇼핑	-7708
▁시가	-7709
▁시킨	-7710
▁쓰는	-7711
▁윤씨	-7712
▁이끌	-7713
▁죄질	-7714
▁청년	-7715
▁출마	-7716
▁취하	-7717
▁치고	-7718
년간의	-7719
됐는데	-7720
배드림	-7721
아파트	-7722
여명이	-7723
이미지	-7724
차례나	-7725
4000	-7726
▁계좌를	-7727
▁근무한	-7728
▁달라는	-7729
▁담배를	-7730
▁둘러싼	-7731
▁들어서	-7732
▁면밀히	-7733
▁문제는	-7734
▁받았을	-7735
▁법률상	-7736
▁사용해	-7737
▁속도를	-7738
▁시간에	-7739
▁시위를	-7740
▁쌍둥이	-7741
▁여부가	-7742
▁위험이	-7743
▁음식을	-7744
▁정준영	-7745
▁판단에	-7746
▁폭행이	-7747
▁형법상	-7748
금융사기	-7749
eneye	-7750
▁불거졌다	-7751
▁사회에서	-7752
▁소지하고	-7753
▁요구하고	-7754
▁위원장은	-7755
▁정인이를	-7756
er	-7757
▁꿈	-7758
▁끈	-7759
▁밑	-7760
▁싫	-7761
리다	-7762
봤다	-7763
북한	-7764
수급	-7765
와는	-7766
인륜	-7767
장한	-7768
철도	-7769
ang	-7770
▁46	-7771
▁4·	-7772
▁난다	-7773
▁느껴	-7774
▁부풀	-7775
▁분쟁	-7776
▁사적	-7777
▁살피	-7778
▁서해	-7779
▁성격	-7780
▁성분	-7781
▁역학	-7782
▁외제	-7783
▁이메	-7784
▁일시	-7785
▁접견	-7786
▁추측	-7787
▁축소	-7788
▁취임	-7789
▁혼인	-7790
검찰의	-7791
수사가	-7792
시간을	-7793
월에도	-7794
장애인	-7795
폐소생	-7796
▁내놨다	-7797
▁뇌출혈	-7798
▁다리를	-7799
▁미필적	-7800
▁박씨의	-7801
▁부산의	-7802
▁불과한	-7803
▁상태인	-7804
▁아시아	-7805
▁오른쪽	-7806
▁이전에	-7807
▁자수한	-7808
▁정신과	-7809
▁주먹과	-7810
▁주먹을	-7811
▁주장도	-7812
▁최소한	-7813
▁충분한	-7814
▁친모가	-7815
▁확인이	-7816
경찰서로	-7817
▁4000	-7818
▁뉘우치고	-7819
▁범행했다	-7820
▁법률대리	-7821
▁보험금을	-7822
▁신고하지	-7823
▁신속하게	-7824
▁운전자를	-7825
▁춘천지법	-7826
▁판단하고	-7827
▁형사사건	-7828
▁회장에게	-7829
아동범죄조사	-7830
▁페	-7831
고가	-7832
대마	-7833
마저	-7834
보가	-7835
보복	-7836
보사	-7837
생님	-7838
서의	-7839
중개	-7840
찬수	-7841
▁47	-7842
▁건넸	-7843
▁결코	-7844
▁고시	-7845
▁납부	-7846
▁모자	-7847
▁서당	-7848
▁짧은	-7849
▁팔을	-7850
▁하려	-7851
▁흡연	-7852
되거나	-7853
사진을	-7854
치료를	-7855
▁남동생	-7856
▁노래주	-7857
▁대비해	-7858
▁때부터	-7859
▁뜯어낸	-7860
▁반응을	-7861
▁범죄집	-7862
▁사태를	-7863
▁욕설과	-7864
▁위조한	-7865
▁일가족	-7866
▁행방을	-7867
고등법원	-7868
티이미지	-7869
▁다하겠다	-7870
▁분석하고	-7871
▁브리핑을	-7872
▁수면유도	-7873
▁수사심의	-7874
▁심폐소생	-7875
▁약식기소	-7876
▁이어갔다	-7877
▁잔혹하게	-7878
▁차량에서	-7879
▁특정했다	-7880
▁파악하기	-7881
▁게시판에는	-7882
▁이스타항공	-7883
▁인터뷰에서	-7884
▁커뮤니티에	-7885
▁소셜네트워크서비스	-7886
90	-7887
▁곡	-7888
▁곤	-7889
▁첨	-7890
경위	-7891
고의	-7892
끄럽	-7893
났고	-7894
놓은	-7895
도망	-7896
매를	-7897
뼈가	-7898
사유	-7899
성수	-7900
아들	-7901
오던	-7902
점매	-7903
정상	-7904
.5%	-7905
▁간의	-7906
▁과다	-7907
▁그때	-7908
▁나라	-7909
▁떠난	-7910
▁물리	-7911
▁배송	-7912
▁법제	-7913
▁새로	-7914
▁숨어	-7915
▁완강	-7916
▁원이	-7917
▁자국	-7918
▁준수	-7919
▁차명	-7920
▁출범	-7921
▁휩싸	-7922
라면서	-7923
정보를	-7924
한다면	-7925
▁가방을	-7926
▁거액의	-7927
▁금액이	-7928
▁내리고	-7929
▁사례를	-7930
▁사용할	-7931
▁알코올	-7932
▁의식불	-7933
▁이종필	-7934
▁혈액형	-7935
▁8000	-7936
▁구속하고	-7937
▁인정하며	-7938
▁자살예방	-7939
▁피고인과	-7940
▁학생들을	-7941
▁부산경찰청	-7942
▁자본시장법	-7943
▁학생들에게	-7944
▁감염병예방법	-7945
▁애플리케이션	-7946
▁습	-7947
▁큐	-7948
건은	-7949
끔찍	-7950
만큼	-7951
여금	-7952
우기	-7953
청문	-7954
촉진	-7955
파워	-7956
협의	-7957
▁김경	-7958
▁나설	-7959
▁내내	-7960
▁닿지	-7961
▁분야	-7962
▁비방	-7963
▁약을	-7964
▁정읍	-7965
▁주력	-7966
▁주유	-7967
▁집계	-7968
▁헤어	-7969
▁힘든	-7970
결과를	-7971
경위를	-7972
성보호	-7973
체적인	-7974
▁검찰청	-7975
▁관계에	-7976
▁김창룡	-7977
▁농수로	-7978
▁물의를	-7979
▁발표한	-7980
▁숨지고	-7981
▁않았을	-7982
▁양형에	-7983
▁우발적	-7984
▁위반과	-7985
▁은닉한	-7986
▁이규원	-7987
▁이사를	-7988
▁제작해	-7989
▁차관을	-7990
▁후에도	-7991
억여원을	-7992
▁납득하기	-7993
▁부모에게	-7994
▁신고했고	-7995
▁인천공항	-7996
▁재판장은	-7997
▁주민센터	-7998
▁중이었다	-7999
▁지검장은	-8000
건조물방화	-8001
▁어린이집에서	-8002
▁G	-8003
▁빗	-8004
▁쓸	-8005
갑룡	-8006
면의	-8007
부대	-8008
스에	-8009
싸움	-8010
여객	-8011
이후	-8012
장히	-8013
치가	-8014
함이	-8015
협력	-8016
▁달러	-8017
▁동급	-8018
▁떠올	-8019
▁상속	-8020
▁성명	-8021
▁안다	-8022
▁유골	-8023
▁유일	-8024
▁인격	-8025
▁재배	-8026
▁진지	-8027
▁찾고	-8028
▁처방	-8029
▁하에	-8030
▁홍콩	-8031
▁힘을	-8032
경위는	-8033
성추행	-8034
지기도	-8035
파워웨	-8036
"...	-8037
2019	-8038
▁구성해	-8039
▁러시아	-8040
▁말하기	-8041
▁어깨를	-8042
▁유족은	-8043
▁음주측	-8044
▁의료진	-8045
▁인사를	-8046
▁일삼은	-8047
▁장관을	-8048
▁조씨를	-8049
▁지인이	-8050
▁총장이	-8051
▁최씨를	-8052
▁투자자	-8053
▁화재가	-8054
형사단독	-8055
▁거리에서	-8056
▁머리채를	-8057
▁발견하지	-8058
▁법무부에	-8059
▁생각하고	-8060
▁유흥업소	-8061
▁있었는데	-8062
▁처음이다	-8063
▁특정하고	-8064
간담회에서	-8065
▁엎	-8066
과가	-8067
금은	-8068
길에	-8069
란히	-8070
명한	-8071
사태	-8072
석을	-8073
성의	-8074
수욕	-8075
인척	-8076
▁/©	-8077
▁75	-8078
▁공항	-8079
▁귀국	-8080
▁닉네	-8081
▁당첨	-8082
▁수련	-8083
▁식사	-8084
▁영구	-8085
▁용역	-8086
▁입어	-8087
▁자리	-8088
▁정직	-8089
▁중계	-8090
▁줬다	-8091
▁쿠팡	-8092
▁타당	-8093
▁탐문	-8094
▁회부	-8095
부동산	-8096
았다는	-8097
▁것이고	-8098
▁것이냐	-8099
▁결정에	-8100
▁기간에	-8101
▁박씨를	-8102
▁보여주	-8103
▁살인과	-8104
▁시비를	-8105
▁신속한	-8106
▁아들과	-8107
▁안산시	-8108
▁안전을	-8109
▁않다고	-8110
▁요청에	-8111
▁유씨는	-8112
▁의심해	-8113
▁이뤄졌	-8114
▁입수한	-8115
▁정황도	-8116
▁주소를	-8117
▁증거물	-8118
▁차이가	-8119
▁총장은	-8120
▁학생을	-8121
▁형태로	-8122
▁화성군	-8123
주택공사	-8124
▁공소장에	-8125
▁과실치사	-8126
▁국민연금	-8127
▁법무부가	-8128
▁보도했다	-8129
▁생각했다	-8130
▁수사팀은	-8131
▁주고받은	-8132
▁차량으로	-8133
▁소셜미디어	-8134
▁편의점에서	-8135
33	-8136
▁레	-8137
▁샀	-8138
▁줘	-8139
내부	-8140
소속	-8141
소한	-8142
종민	-8143
죄에	-8144
치로	-8145
▁개별	-8146
▁걸려	-8147
▁경로	-8148
▁맞춰	-8149
▁매장	-8150
▁모방	-8151
▁밥을	-8152
▁배를	-8153
▁부합	-8154
▁쉬지	-8155
▁알몸	-8156
▁약국	-8157
▁유동	-8158
▁젊은	-8159
▁종교	-8160
▁첫째	-8161
▁출혈	-8162
▁통합	-8163
▁혐오	-8164
검사를	-8165
기관에	-8166
서에는	-8167
수사대	-8168
였으며	-8169
▁검찰도	-8170
▁검토해	-8171
▁곳으로	-8172
▁권한을	-8173
▁김씨에	-8174
▁나타난	-8175
▁대체로	-8176
▁밝히고	-8177
▁사업을	-8178
▁소속사	-8179
▁심사를	-8180
▁아기의	-8181
▁여아를	-8182
▁연기를	-8183
▁의심을	-8184
▁중이며	-8185
▁총장의	-8186
▁판단할	-8187
교도소에	-8188
사이트를	-8189
회의에서	-8190
▁대표이사	-8191
▁방역수칙	-8192
▁알면서도	-8193
▁옥살이를	-8194
▁운전자는	-8195
▁인명피해	-8196
▁투자금을	-8197
▁사이버안전	-8198
▁전문가들은	-8199
▁해덕파워웨	-8200
토지주택공사	-8201
▁여성아동범죄조사	-8202
▁화성연쇄살인사건	-8203
7/	-8204
▁좁	-8205
▁짐	-8206
▁짜	-8207
거부	-8208
군사	-8209
기각	-8210
나얀	-8211
다운	-8212
단지	-8213
민정	-8214
발령	-8215
발전	-8216
세포	-8217
어를	-8218
재수	-8219
조한	-8220
형인	-8221
94@	-8222
amy	-8223
▁가석	-8224
▁기여	-8225
▁꼬집	-8226
▁담보	-8227
▁막을	-8228
▁면접	-8229
▁모인	-8230
▁무너	-8231
▁양손	-8232
▁지위	-8233
▁케이	-8234
▁팔아	-8235
▁향한	-8236
개월이	-8237
대학원	-8238
소송을	-8239
시간여	-8240
중이다	-8241
▁nay	-8242
▁감찰을	-8243
▁거주지	-8244
▁계정을	-8245
▁대북전	-8246
▁데이터	-8247
▁방법이	-8248
▁보고를	-8249
▁사유가	-8250
▁생활비	-8251
▁입혔다	-8252
▁정서적	-8253
▁지구대	-8254
▁출석을	-8255
▁학대가	-8256
▁함나얀	-8257
병원에서	-8258
주거침입	-8259
▁가능성에	-8260
▁가해자를	-8261
▁경기북부	-8262
▁반성하지	-8263
▁보배드림	-8264
▁서울시장	-8265
▁영상에는	-8266
▁조두순의	-8267
▁피해여성	-8268
▁화성사건	-8269
▁집중적으로	-8270
▁nayamy	-8271
▁북부경찰서는	-8272
▁서울중앙지검은	-8273
▁檢	-8274
▁엑	-8275
가능	-8276
시한	-8277
웰컴	-8278
위생	-8279
의가	-8280
자백	-8281
잘못	-8282
재단	-8283
접촉	-8284
포스	-8285
훨씬	-8286
▁43	-8287
▁CJ	-8288
▁가르	-8289
▁고급	-8290
▁구금	-8291
▁당직	-8292
▁딸과	-8293
▁무더	-8294
▁박탈	-8295
▁분담	-8296
▁비대	-8297
▁사임	-8298
▁생계	-8299
▁손괴	-8300
▁아예	-8301
▁악화	-8302
▁인증	-8303
▁입력	-8304
▁재학	-8305
▁정씨	-8306
▁청문	-8307
▁체계	-8308
▁충족	-8309
▁퇴근	-8310
거래법	-8311
교수는	-8312
뜨렸다	-8313
카드를	-8314
(13)	-8315
▁SUV	-8316
▁건수는	-8317
▁검거에	-8318
▁결정이	-8319
▁계획을	-8320
▁금액은	-8321
▁내려진	-8322
▁다세대	-8323
▁다시는	-8324
▁드린다	-8325
▁따라서	-8326
▁모른다	-8327
▁못한다	-8328
▁민갑룡	-8329
▁밀입국	-8330
▁방에서	-8331
▁부당이	-8332
▁부모의	-8333
▁비용을	-8334
▁빌미로	-8335
▁사진이	-8336
▁소홀히	-8337
▁손씨의	-8338
▁수법을	-8339
▁수사도	-8340
▁알리지	-8341
▁없으며	-8342
▁여부도	-8343
▁이른다	-8344
▁이사장	-8345
▁있음을	-8346
▁잘못이	-8347
▁주도한	-8348
▁차원의	-8349
▁참석한	-8350
▁타인의	-8351
▁회삿돈	-8352
산경찰서	-8353
하겠다며	-8354
현재까지	-8355
▁국선변호	-8356
▁안양지청	-8357
▁여성가족	-8358
▁우리나라	-8359
▁이뤄지는	-8360
▁정보보호	-8361
▁진행하는	-8362
▁펜션에서	-8363
피해자에게	-8364
▁들이받았다	-8365
▁반복적으로	-8366
▁신상정보를	-8367
▁프로그램을	-8368
▁서초경찰서는	-8369
▁쏠	-8370
개가	-8371
건설	-8372
공공	-8373
냄새	-8374
딩스	-8375
뜨려	-8376
로도	-8377
만히	-8378
미싱	-8379
박한	-8380
업에	-8381
요일	-8382
제는	-8383
지사	-8384
카페	-8385
프트	-8386
▁감경	-8387
▁공인	-8388
▁기반	-8389
▁김동	-8390
▁대다	-8391
▁데다	-8392
▁병역	-8393
▁복용	-8394
▁서버	-8395
▁수출	-8396
▁응답	-8397
▁일자	-8398
▁저를	-8399
▁정기	-8400
▁중랑	-8401
▁창문	-8402
▁체납	-8403
▁훨씬	-8404
성매매	-8405
성폭행	-8406
수익을	-8407
시키고	-8408
이형주	-8409
있었다	-8410
점매석	-8411
차량을	-8412
▁남성에	-8413
▁논란을	-8414
▁다툼이	-8415
▁변호를	-8416
▁보도에	-8417
▁붙잡혀	-8418
▁사칭한	-8419
▁살해할	-8420
▁생각에	-8421
▁선고는	-8422
▁세월호	-8423
▁실시한	-8424
▁아이와	-8425
▁영상은	-8426
▁예정된	-8427
▁용인시	-8428
▁이름이	-8429
▁정확히	-8430
▁제시한	-8431
▁총경이	-8432
▁향했다	-8433
▁훼손해	-8434
국제공항	-8435
시간가량	-8436
▁국민권익	-8437
▁사망하게	-8438
▁아버지의	-8439
▁자백하고	-8440
▁접수했다	-8441
▁진행되고	-8442
▁피고인을	-8443
▁트라이애슬론	-8444
34	-8445
un	-8446
▁룸	-8447
▁잊	-8448
▁층	-8449
가짜	-8450
권에	-8451
도와	-8452
리와	-8453
베이	-8454
사령	-8455
오고	-8456
음이	-8457
의무	-8458
채팅	-8459
트랙	-8460
히고	-8461
(19	-8462
TBC	-8463
▁개그	-8464
▁걸로	-8465
▁급증	-8466
▁끔찍	-8467
▁남겨	-8468
▁다닌	-8469
▁돈은	-8470
▁랜딩	-8471
▁말라	-8472
▁모양	-8473
▁몰다	-8474
▁박씨	-8475
▁반경	-8476
▁용납	-8477
▁인과	-8478
▁잠복	-8479
▁잠이	-8480
▁죽이	-8481
▁죽인	-8482
▁초반	-8483
만원과	-8484
점으로	-8485
직원을	-8486
홀딩스	-8487
(65)	-8488
▁1~2	-8489
▁검거한	-8490
▁게시한	-8491
▁고발된	-8492
▁그러자	-8493
▁늘어나	-8494
▁동승자	-8495
▁받으며	-8496
▁방조한	-8497
▁복부를	-8498
▁불리한	-8499
▁생각을	-8500
▁설치해	-8501
▁어렵고	-8502
▁인정해	-8503
▁장찬수	-8504
▁지급한	-8505
▁초등생	-8506
▁허가를	-8507
스크포스	-8508
위원회가	-8509
휴대전화	-8510
▁가해자로	-8511
▁공개됐다	-8512
▁민주노총	-8513
▁발생하는	-8514
▁방향으로	-8515
▁사과문을	-8516
▁수치심을	-8517
▁이어지고	-8518
▁전화번호	-8519
▁제작하고	-8520
▁청주에서	-8521
▁학생들의	-8522
▁구속기소했다	-8523
77	-8524
▁곽	-8525
국대	-8526
달아	-8527
려면	-8528
물은	-8529
보건	-8530
소유	-8531
어져	-8532
여명	-8533
염병	-8534
인아	-8535
자녀	-8536
점검	-8537
제출	-8538
진을	-8539
▁TF	-8540
▁강행	-8541
▁걸린	-8542
▁구타	-8543
▁기금	-8544
▁누락	-8545
▁동부	-8546
▁두개	-8547
▁맞는	-8548
▁모여	-8549
▁사립	-8550
▁수정	-8551
▁열차	-8552
▁염두	-8553
▁익명	-8554
▁인상	-8555
▁조선	-8556
▁찾을	-8557
▁큰딸	-8558
▁포장	-8559
▁화장	-8560
▁흔들	-8561
리면서	-8562
만원씩	-8563
센터는	-8564
여명을	-8565
자동차	-8566
▁검토한	-8567
▁계획한	-8568
▁공모한	-8569
▁굉장히	-8570
▁그쳤다	-8571
▁머리카	-8572
▁목사가	-8573
▁범인이	-8574
▁비트코	-8575
▁사실로	-8576
▁사용된	-8577
▁살겠다	-8578
▁시기에	-8579
▁심리를	-8580
▁아동이	-8581
▁올랐다	-8582
▁용산구	-8583
▁이어진	-8584
▁인물로	-8585
▁정치적	-8586
▁조사와	-8587
▁지사는	-8588
▁진술은	-8589
▁확인돼	-8590
▁JTBC	-8591
▁대부분을	-8592
▁비서관은	-8593
▁시도했다	-8594
▁아이들이	-8595
▁운영하던	-8596
▁웅동학원	-8597
▁이전에도	-8598
▁인사청문	-8599
▁집합금지	-8600
피고인들은	-8601
▁인정된다고	-8602
티이미지뱅크	-8603
▁마포경찰서는	-8604
▁한국토지주택공사	-8605
86	-8606
감사	-8607
경은	-8608
단과	-8609
르기	-8610
스탄	-8611
얼굴	-8612
엠넷	-8613
여러	-8614
이탈	-8615
장소	-8616
종을	-8617
평가	-8618
▁갈취	-8619
▁거세	-8620
▁곳을	-8621
▁근본	-8622
▁꾸준	-8623
▁동작	-8624
▁득표	-8625
▁말할	-8626
▁벽돌	-8627
▁보행	-8628
▁상상	-8629
▁서민	-8630
▁시즌	-8631
▁악용	-8632
▁없게	-8633
▁이현	-8634
▁치킨	-8635
정으로	-8636
▁남성과	-8637
▁내부에	-8638
▁담당한	-8639
▁대사관	-8640
▁뒤에도	-8641
▁때마다	-8642
▁만남을	-8643
▁맡았던	-8644
▁목적이	-8645
▁배우자	-8646
▁배제할	-8647
▁법의학	-8648
▁부당한	-8649
▁사무국	-8650
▁실질심	-8651
▁심씨는	-8652
▁않지만	-8653
▁올라와	-8654
▁이상을	-8655
▁일정을	-8656
▁일하던	-8657
▁작성해	-8658
▁전광훈	-8659
▁조작한	-8660
▁지목한	-8661
▁지인과	-8662
▁찌르고	-8663
▁창문을	-8664
▁친모로	-8665
▁행세를	-8666
성착취물	-8667
이었다고	-8668
▁1991	-8669
▁가짜뉴스	-8670
▁글쓴이는	-8671
▁마약류를	-8672
▁범죄사실	-8673
▁안타까운	-8674
▁운영하며	-8675
▁장소에서	-8676
▁조직폭력	-8677
▁증가했다	-8678
▁진정서를	-8679
▁창원지법	-8680
▁강제추행한	-8681
▁누리꾼들은	-8682
▁압수수색한	-8683
▁개인정보보호법	-8684
▁특정경제범죄가중처벌법상	-8685
▁<	-8686
▁콜	-8687
디아	-8688
마을	-8689
바일	-8690
분의	-8691
수산	-8692
원심	-8693
월과	-8694
코드	-8695
▁42	-8696
▁YG	-8697
▁감수	-8698
▁개를	-8699
▁그것	-8700
▁김상	-8701
▁나갈	-8702
▁담아	-8703
▁돌보	-8704
▁마사	-8705
▁며칠	-8706
▁몰려	-8707
▁석모	-8708
▁소형	-8709
▁애초	-8710
▁엄한	-8711
▁영국	-8712
▁전년	-8713
▁주행	-8714
▁지사	-8715
▁침을	-8716
▁통영	-8717
▁흘러	-8718
고에서	-8719
국과수	-8720
기관의	-8721
김학의	-8722
자로서	-8723
조사에	-8724
(25·	-8725
▁3~4	-8726
▁고소장	-8727
▁공직자	-8728
▁규정에	-8729
▁된다고	-8730
▁라디오	-8731
▁소식을	-8732
▁수색에	-8733
▁여고생	-8734
▁여직원	-8735
▁연습생	-8736
▁예방을	-8737
▁올라가	-8738
▁완강히	-8739
▁원하는	-8740
▁유인해	-8741
▁유족이	-8742
▁일으키	-8743
▁일하는	-8744
▁입양아	-8745
▁입장이	-8746
▁잔혹한	-8747
▁잠적한	-8748
▁주의를	-8749
▁큐브스	-8750
▁활동한	-8751
▁회사에	-8752
만으로는	-8753
▁가해자의	-8754
▁것으로도	-8755
▁고속도로	-8756
▁내용으로	-8757
▁대기발령	-8758
▁범인도피	-8759
▁변호사와	-8760
▁성범죄에	-8761
▁수사팀에	-8762
▁증인신문	-8763
▁지검장이	-8764
▁피의자는	-8765
▁미래통합당	-8766
▁택시기사를	-8767
▁2020.7	-8768
▁범죄단체조직	-8769
▁법원으로부터	-8770
▁국립과학수사연구원의	-8771
-0	-8772
al	-8773
▁꽃	-8774
▁멀	-8775
▁엽	-8776
방위	-8777
심히	-8778
어떤	-8779
영수	-8780
월말	-8781
위법	-8782
음에	-8783
투표	-8784
하에	-8785
훈련	-8786
(5)	-8787
?16	-8788
▁감식	-8789
▁과장	-8790
▁그해	-8791
▁끊고	-8792
▁날인	-8793
▁도시	-8794
▁목검	-8795
▁발의	-8796
▁사설	-8797
▁승무	-8798
▁시흥	-8799
▁쌍방	-8800
▁야구	-8801
▁여야	-8802
▁예산	-8803
▁일은	-8804
▁자연	-8805
▁작동	-8806
▁진주	-8807
▁찾는	-8808
▁탈의	-8809
▁파열	-8810
▁풀이	-8811
▁현역	-8812
사회적	-8813
씨와의	-8814
여부를	-8815
이어서	-8816
접대를	-8817
주세요	-8818
체육회	-8819
했다면	-8820
▁근거가	-8821
▁논란에	-8822
▁단속에	-8823
▁데이트	-8824
▁동급생	-8825
▁뒤따라	-8826
▁뒤에서	-8827
▁모텔로	-8828
▁받기도	-8829
▁사항을	-8830
▁살해된	-8831
▁선수를	-8832
▁신분을	-8833
▁아들은	-8834
▁어느게	-8835
▁연락해	-8836
▁연예인	-8837
▁조모씨	-8838
▁체포한	-8839
▁특정한	-8840
공소사실	-8841
▁1989	-8842
▁경찰관의	-8843
▁국과수에	-8844
▁비춰보면	-8845
▁신빙성을	-8846
▁이용촬영	-8847
▁제주에서	-8848
▁통보했다	-8849
▁신청했지만	-8850
▁일각에서는	-8851
▁형사소송법	-8852
▁공판준비기일을	-8853
▁떼	-8854
▁빙	-8855
▁섞	-8856
▁팬	-8857
과거	-8858
구미	-8859
대기	-8860
라면	-8861
면에	-8862
살롱	-8863
세한	-8864
시킬	-8865
윤리	-8866
트로	-8867
평소	-8868
핸드	-8869
형의	-8870
▁65	-8871
▁강아	-8872
▁고래	-8873
▁냉장	-8874
▁늦은	-8875
▁만기	-8876
▁받으	-8877
▁시는	-8878
▁위계	-8879
▁의존	-8880
▁작용	-8881
▁잡은	-8882
▁재난	-8883
▁차림	-8884
▁형은	-8885
▁환불	-8886
▁훈육	-8887
났다고	-8888
년형을	-8889
방망이	-8890
인터넷	-8891
재판을	-8892
▁가벼운	-8893
▁고소인	-8894
▁기간을	-8895
▁김재현	-8896
▁나오면	-8897
▁다가가	-8898
▁당사자	-8899
▁도로를	-8900
▁됐다고	-8901
▁떠났다	-8902
▁머리에	-8903
▁반성의	-8904
▁부산대	-8905
▁비아이	-8906
▁생명의	-8907
▁안씨와	-8908
▁옮겼다	-8909
▁원인이	-8910
▁이르러	-8911
▁정황은	-8912
▁지시로	-8913
▁진술의	-8914
▁청탁을	-8915
▁행동이	-8916
▁회장에	-8917
▁개정안은	-8918
▁경우에도	-8919
▁경찰서로	-8920
▁비공개로	-8921
▁실랑이를	-8922
▁실시했다	-8923
▁아파트를	-8924
▁압수했다	-8925
▁이름으로	-8926
▁자백했다	-8927
▁최신종은	-8928
▁충격으로	-8929
▁포토라인	-8930
▁해외에서	-8931
▁확인하지	-8932
▁사문서위조	-8933
▁알려지면서	-8934
▁국정감사에서	-8935
▁서울동부지검	-8936
처벌등에관한특례법	-8937
93	-8938
MW	-8939
~8	-8940
▁갇	-8941
▁굳	-8942
▁낚	-8943
▁엇	-8944
게는	-8945
경비	-8946
누나	-8947
닥터	-8948
압수	-8949
재산	-8950
적부	-8951
졌던	-8952
천읍	-8953
평양	-8954
합동	-8955
▁57	-8956
▁건의	-8957
▁경쟁	-8958
▁군을	-8959
▁극히	-8960
▁대행	-8961
▁도움	-8962
▁동선	-8963
▁무료	-8964
▁무서	-8965
▁물에	-8966
▁바꿨	-8967
▁박정	-8968
▁불허	-8969
▁뿌리	-8970
▁뿌린	-8971
▁상무	-8972
▁선물	-8973
▁씨도	-8974
▁양부	-8975
▁예외	-8976
▁인간	-8977
▁조규	-8978
▁죽을	-8979
▁중사	-8980
▁지르	-8981
▁지점	-8982
▁총회	-8983
▁추산	-8984
▁캠프	-8985
▁파주	-8986
검사가	-8987
그것이	-8988
었으며	-8989
영상을	-8990
외국인	-8991
정확한	-8992
하고도	-8993
하려던	-8994
▁과정이	-8995
▁너무나	-8996
▁말부터	-8997
▁보내고	-8998
▁부적절	-8999
▁부족한	-9000
▁부회장	-9001
▁사이의	-9002
▁상대방	-9003
▁선고된	-9004
▁아니면	-9005
▁여죄를	-9006
▁영상에	-9007
▁적발돼	-9008
▁정보가	-9009
▁지검장	-9010
▁착용을	-9011
▁통보를	-9012
▁화상을	-9013
▁황씨는	-9014
아동유기	-9015
▁공수처는	-9016
▁근무했던	-9017
▁들이받고	-9018
▁못했다고	-9019
▁서울시는	-9020
▁성폭력을	-9021
▁요청하는	-9022
▁운전하다	-9023
▁재판부도	-9024
▁제공하는	-9025
▁진술하고	-9026
▁마약류관리	-9027
▁옮겨졌지만	-9028
▁인정하면서	-9029
▁국가수사본부	-9030
▁지방자치단체	-9031
▁깔	-9032
▁쏘	-9033
▁핫	-9034
경호	-9035
공익	-9036
로그	-9037
시흥	-9038
이의	-9039
자유	-9040
중국	-9041
진한	-9042
하니	-9043
혁재	-9044
▁것일	-9045
▁남동	-9046
▁눈을	-9047
▁문건	-9048
▁불분	-9049
▁붙여	-9050
▁상환	-9051
▁속아	-9052
▁시속	-9053
▁아기	-9054
▁안씨	-9055
▁없던	-9056
▁죄가	-9057
▁쫓고	-9058
▁합류	-9059
▁회식	-9060
검찰은	-9061
기관과	-9062
기록을	-9063
심사를	-9064
원에게	-9065
▁BMW	-9066
▁가슴을	-9067
▁강요한	-9068
▁검사에	-9069
▁교수에	-9070
▁교수와	-9071
▁국무총	-9072
▁기준을	-9073
▁동생을	-9074
▁동생이	-9075
▁두개골	-9076
▁명의를	-9077
▁모바일	-9078
▁못했던	-9079
▁부산진	-9080
▁사례는	-9081
▁생명에	-9082
▁수준의	-9083
▁시위에	-9084
▁이들과	-9085
▁접촉을	-9086
▁처분이	-9087
▁청원은	-9088
▁파악해	-9089
▁회복을	-9090
구속기소	-9091
군사법원	-9092
보호관찰	-9093
피해자를	-9094
▁교수에게	-9095
▁대변인은	-9096
▁동의했다	-9097
▁바이러스	-9098
▁변호인의	-9099
▁양부모의	-9100
▁옥상에서	-9101
▁인계했다	-9102
▁수감생활을	-9103
▁수사기관의	-9104
▁어린이집에	-9105
▁여자화장실	-9106
개에	-9107
나무	-9108
년도	-9109
년여	-9110
뇌물	-9111
리자	-9112
반성	-9113
뺑소	-9114
서야	-9115
석희	-9116
안에	-9117
원씨	-9118
입건	-9119
전한	-9120
처에	-9121
항에	-9122
▁KB	-9123
▁“3	-9124
▁간담	-9125
▁경미	-9126
▁계양	-9127
▁고스	-9128
▁공감	-9129
▁남부	-9130
▁노트	-9131
▁당장	-9132
▁데뷔	-9133
▁도봉	-9134
▁독촉	-9135
▁별도	-9136
▁분식	-9137
▁비추	-9138
▁세게	-9139
▁심해	-9140
▁엎드	-9141
▁엠넷	-9142
▁이기	-9143
▁자지	-9144
▁정문	-9145
▁조심	-9146
▁죽여	-9147
▁차고	-9148
▁창녕	-9149
▁치유	-9150
▁커피	-9151
▁탈락	-9152
▁틈을	-9153
뺑소니	-9154
사고가	-9155
자신의	-9156
처에서	-9157
행위가	-9158
CCTV	-9159
▁가로막	-9160
▁가로채	-9161
▁검거돼	-9162
▁검은색	-9163
▁결정적	-9164
▁공유한	-9165
▁구속해	-9166
▁구형한	-9167
▁기록이	-9168
▁꾸준히	-9169
▁당국은	-9170
▁대표에	-9171
▁대학원	-9172
▁도저히	-9173
▁무거워	-9174
▁박준영	-9175
▁부부를	-9176
▁부시장	-9177
▁손정민	-9178
▁시인한	-9179
▁않다는	-9180
▁얻었다	-9181
▁엄벌이	-9182
▁외부에	-9183
▁위협을	-9184
▁이동한	-9185
▁접대를	-9186
▁제도를	-9187
▁지위를	-9188
▁하려고	-9189
▁했다가	-9190
▁호소한	-9191
▁희망의	-9192
경찰서를	-9193
노동조합	-9194
사법경찰	-9195
업무방해	-9196
죄송하다	-9197
▁6000	-9198
▁강력범죄	-9199
▁거부했다	-9200
▁기금운용	-9201
▁넘겨받은	-9202
▁대마초를	-9203
▁선고받아	-9204
▁시인했다	-9205
▁아들에게	-9206
▁채용비리	-9207
▁최씨에게	-9208
▁특수절도	-9209
▁합리적인	-9210
▁가족들에게	-9211
▁반부패수사	-9212
▁의정부지법	-9213
▁인천경찰청	-9214
▁진행하기로	-9215
▁텔레그램에	-9216
▁특수공무집행방해	-9217
8/	-9218
·3	-9219
▁을	-9220
▁췌	-9221
겠냐	-9222
어선	-9223
오자	-9224
의혹	-9225
조를	-9226
통에	-9227
투를	-9228
팀은	-9229
호는	-9230
▁“2	-9231
▁고도	-9232
▁기망	-9233
▁대질	-9234
▁대치	-9235
▁대피	-9236
▁드론	-9237
▁불로	-9238
▁상실	-9239
▁소행	-9240
▁손에	-9241
▁어선	-9242
▁얻어	-9243
▁연계	-9244
▁유권	-9245
▁있나	-9246
▁조언	-9247
▁피우	-9248
경찰에	-9249
관으로	-9250
라우마	-9251
보고서	-9252
아들이	-9253
아버지	-9254
정신적	-9255
질랜드	-9256
형으로	-9257
(64)	-9258
▁객관적	-9259
▁고교생	-9260
▁기부금	-9261
▁기소한	-9262
▁단순히	-9263
▁당하고	-9264
▁법정을	-9265
▁분노를	-9266
▁빠졌다	-9267
▁사례도	-9268
▁서초동	-9269
▁신씨는	-9270
▁압수한	-9271
▁유류품	-9272
▁의문이	-9273
▁잡아당	-9274
▁장애를	-9275
▁정의당	-9276
▁침대에	-9277
▁파일을	-9278
▁폭행에	-9279
▁했는지	-9280
구체적인	-9281
프로듀스	-9282
▁감금하고	-9283
▁공수처가	-9284
▁대전고법	-9285
▁변호사의	-9286
▁불거지자	-9287
▁술자리를	-9288
▁시내버스	-9289
▁옮겨졌다	-9290
▁정인이의	-9291
▁주점에서	-9292
▁중앙선을	-9293
▁지나가던	-9294
▁철저하게	-9295
▁최근에는	-9296
사법연수원	-9297
▁길거리에서	-9298
▁인정하느냐	-9299
권리행사방해	-9300
▁범죄수익은닉	-9301
등에관한법률위반	-9302
6/	-9303
▁l	-9304
▁워	-9305
겼고	-9306
딸이	-9307
면을	-9308
밀한	-9309
세에	-9310
시티	-9311
알선	-9312
억울	-9313
없음	-9314
종결	-9315
중단	-9316
▁53	-9317
▁갈비	-9318
▁갈아	-9319
▁교원	-9320
▁글은	-9321
▁늘고	-9322
▁무효	-9323
▁묵인	-9324
▁배후	-9325
▁삶을	-9326
▁소액	-9327
▁실효	-9328
▁엇갈	-9329
▁욕을	-9330
▁원정	-9331
▁이명	-9332
▁일종	-9333
▁전동	-9334
▁태운	-9335
▁하차	-9336
경찰의	-9337
기획사	-9338
마약류	-9339
스포츠	-9340
정경심	-9341
죄질이	-9342
진흥원	-9343
1000	-9344
▁WFM	-9345
▁감독과	-9346
▁강모씨	-9347
▁경우에	-9348
▁경제부	-9349
▁광주의	-9350
▁남편은	-9351
▁다툼을	-9352
▁달했다	-9353
▁마시게	-9354
▁무관한	-9355
▁사장의	-9356
▁스미싱	-9357
▁신빙성	-9358
▁신혁재	-9359
▁실수로	-9360
▁안타깝	-9361
▁연수구	-9362
▁유죄가	-9363
▁이어질	-9364
▁적용한	-9365
▁조수석	-9366
▁지나던	-9367
▁진료를	-9368
▁질문을	-9369
▁체포돼	-9370
▁친인척	-9371
▁탑승한	-9372
▁폭언과	-9373
▁해외로	-9374
▁향하고	-9375
차로에서	-9376
특수상해	-9377
함으로써	-9378
현장에서	-9379
▁경찰조사	-9380
▁교도소에	-9381
▁기다리고	-9382
▁대화방을	-9383
▁만들었다	-9384
▁못했다는	-9385
▁미국에서	-9386
▁벌금형이	-9387
▁사과했다	-9388
▁사무실에	-9389
▁살펴보고	-9390
▁선고기일	-9391
▁양형했다	-9392
▁이뤄지고	-9393
▁자격정지	-9394
▁재발방지	-9395
▁주장이다	-9396
▁중고거래	-9397
▁지하주차	-9398
▁최후변론	-9399
▁필요성을	-9400
▁학교에서	-9401
▁상황이었다	-9402
▁조직폭력배	-9403
▁홈페이지에	-9404
아동학대치사	-9405
-9	-9406
SD	-9407
ee	-9408
▁o	-9409
▁갓	-9410
▁뻔	-9411
가입	-9412
가해	-9413
고로	-9414
권도	-9415
두환	-9416
명만	-9417
부처	-9418
상과	-9419
수에	-9420
씨로	-9421
요구	-9422
유아	-9423
장인	-9424
캄보	-9425
킥보	-9426
하냐	-9427
허가	-9428
▁교제	-9429
▁도난	-9430
▁맞지	-9431
▁먹지	-9432
▁미혼	-9433
▁상급	-9434
▁생을	-9435
▁설정	-9436
▁수당	-9437
▁아쉬	-9438
▁여객	-9439
▁영어	-9440
▁원주	-9441
▁일탈	-9442
▁장학	-9443
▁추석	-9444
▁휴가	-9445
되도록	-9446
바이오	-9447
사건이	-9448
센터를	-9449
인들이	-9450
졌지만	-9451
(14)	-9452
.25/	-9453
▁강동구	-9454
▁건물을	-9455
▁규정을	-9456
▁덜미를	-9457
▁돌아온	-9458
▁둔기를	-9459
▁받고도	-9460
▁배포한	-9461
▁변론을	-9462
▁보기는	-9463
▁복역한	-9464
▁불복한	-9465
▁사들인	-9466
▁사망원	-9467
▁사실혼	-9468
▁수업을	-9469
▁스쿨존	-9470
▁시민의	-9471
▁신속히	-9472
▁영상과	-9473
▁위계에	-9474
▁윤중천	-9475
▁전반에	-9476
▁전화로	-9477
▁조씨에	-9478
▁조씨와	-9479
▁주택에	-9480
▁중고차	-9481
▁중국산	-9482
▁청구할	-9483
▁친구가	-9484
▁하여금	-9485
▁학생의	-9486
▁힘들어	-9487
만원으로	-9488
사건으로	-9489
캄보디아	-9490
▁과거에도	-9491
▁매점매석	-9492
▁무단으로	-9493
▁받았으나	-9494
▁벌금형에	-9495
▁불과하다	-9496
▁아이에게	-9497
▁이송됐다	-9498
▁이용하는	-9499
▁저지르는	-9500
▁전문가의	-9501
▁처분했다	-9502
▁학생들은	-9503
▁행동으로	-9504
▁휘둘렀다	-9505
▁상고심에서	-9506
▁소방당국에	-9507
▁주장했으나	-9508
▁지인들에게	-9509
▁취업제한도	-9510
▁공판기일에서	-9511
▁교통사고처리	-9512
./	-9513
▁셋	-9514
가며	-9515
간을	-9516
갔고	-9517
구나	-9518
국제	-9519
규근	-9520
글을	-9521
기본	-9522
기정	-9523
뉴얼	-9524
라마	-9525
라스	-9526
려다	-9527
름을	-9528
비밀	-9529
상자	-9530
충분	-9531
행동	-9532
▁겪은	-9533
▁곧장	-9534
▁관심	-9535
▁넣은	-9536
▁놓여	-9537
▁다운	-9538
▁대납	-9539
▁대여	-9540
▁대폭	-9541
▁독립	-9542
▁되돌	-9543
▁리드	-9544
▁명은	-9545
▁무인	-9546
▁무참	-9547
▁사찰	-9548
▁아산	-9549
▁약취	-9550
▁연휴	-9551
▁원산	-9552
▁월북	-9553
▁유모	-9554
▁유성	-9555
▁중독	-9556
▁청사	-9557
▁체모	-9558
관에게	-9559
김씨가	-9560
는지를	-9561
당국의	-9562
었으나	-9563
에게서	-9564
연구원	-9565
태평양	-9566
7000	-9567
▁거부한	-9568
▁경험이	-9569
▁구매한	-9570
▁나중에	-9571
▁내사에	-9572
▁돈으로	-9573
▁마음에	-9574
▁말씀드	-9575
▁명단을	-9576
▁몸에서	-9577
▁반인륜	-9578
▁배심원	-9579
▁변경해	-9580
▁부정한	-9581
▁사업가	-9582
▁사장이	-9583
▁사태가	-9584
▁상장사	-9585
▁실종자	-9586
▁아닌지	-9587
▁아직도	-9588
▁염두에	-9589
▁유치원	-9590
▁윤모씨	-9591
▁의사에	-9592
▁이처럼	-9593
▁자료가	-9594
▁자택에	-9595
▁전씨는	-9596
▁제출할	-9597
▁조사도	-9598
▁지르고	-9599
▁힘들다	-9600
고등학교	-9601
▁경찰서를	-9602
▁국토교통	-9603
▁렌터카를	-9604
▁박사방을	-9605
▁반발했다	-9606
▁받았으며	-9607
▁법제사법	-9608
▁보고서를	-9609
▁사용했다	-9610
▁수원여객	-9611
▁여러차례	-9612
▁우리은행	-9613
▁조건으로	-9614
▁처음부터	-9615
▁탄원서를	-9616
▁피의자인	-9617
▁공개하기로	-9618
▁신고하면서	-9619
▁신상공개를	-9620
▁정치자금법	-9621
65	-9622
▁뜨	-9623
▁띄	-9624
▁옳	-9625
▁칠	-9626
게임	-9627
견이	-9628
계는	-9629
끼로	-9630
랫폼	-9631
소환	-9632
아야	-9633
았을	-9634
여분	-9635
유지	-9636
이드	-9637
천군	-9638
청소	-9639
청을	-9640
청이	-9641
크로	-9642
하러	-9643
화할	-9644
▁ch	-9645
▁‘2	-9646
▁곳은	-9647
▁공중	-9648
▁냄새	-9649
▁답을	-9650
▁메모	-9651
▁묵묵	-9652
▁병행	-9653
▁순천	-9654
▁아닐	-9655
▁알린	-9656
▁여가	-9657
▁완주	-9658
▁원대	-9659
▁유예	-9660
▁이별	-9661
▁자필	-9662
▁전세	-9663
▁지불	-9664
▁치매	-9665
▁행적	-9666
년으로	-9667
당하자	-9668
렸지만	-9669
면으로	-9670
방지법	-9671
연했다	-9672
졌다는	-9673
코리아	-9674
-019	-9675
-919	-9676
▁800	-9677
▁경영진	-9678
▁구급차	-9679
▁구속한	-9680
▁노트북	-9681
▁닉네임	-9682
▁대가를	-9683
▁동거남	-9684
▁마련해	-9685
▁만들고	-9686
▁머리와	-9687
▁무게를	-9688
▁변경을	-9689
▁사생활	-9690
▁사칭해	-9691
▁시장을	-9692
▁여아가	-9693
▁자회사	-9694
▁장소에	-9695
▁조규석	-9696
▁진상규	-9697
▁집행을	-9698
▁찾아간	-9699
▁출신인	-9700
▁폭행은	-9701
▁회사를	-9702
어린이집	-9703
주겠다고	-9704
피의자가	-9705
▁설치하고	-9706
▁야산에서	-9707
▁운영하고	-9708
▁유족들은	-9709
▁의결했다	-9710
▁자신들의	-9711
▁접근금지	-9712
▁트라우마	-9713
88-919	-9714
▁가상화폐를	-9715
▁학대행위를	-9716
▁서울지방경찰청은	-9717
48	-9718
um	-9719
▁숫	-9720
검토	-9721
관과	-9722
년대	-9723
목적	-9724
무죄	-9725
보도	-9726
성적	-9727
쉼터	-9728
역을	-9729
정우	-9730
지환	-9731
처음	-9732
체의	-9733
할지	-9734
화로	-9735
▁가둬	-9736
▁경과	-9737
▁공원	-9738
▁관용	-9739
▁교도	-9740
▁그날	-9741
▁기일	-9742
▁대금	-9743
▁매각	-9744
▁매년	-9745
▁미칠	-9746
▁박수	-9747
▁발굴	-9748
▁세금	-9749
▁신경	-9750
▁아냐	-9751
▁안돼	-9752
▁이슈	-9753
▁작년	-9754
▁주사	-9755
▁죽은	-9756
▁차가	-9757
▁후임	-9758
감정을	-9759
는지는	-9760
시하는	-9761
위원은	-9762
집행을	-9763
▁공범인	-9764
▁광산구	-9765
▁기소를	-9766
▁남양유	-9767
▁단서를	-9768
▁만드는	-9769
▁말한다	-9770
▁밀반입	-9771
▁받으면	-9772
▁방침을	-9773
▁벌이던	-9774
▁보내는	-9775
▁소리가	-9776
▁신분증	-9777
▁엄정한	-9778
▁용도로	-9779
▁원장은	-9780
▁이내에	-9781
▁이름과	-9782
▁이씨에	-9783
▁조합원	-9784
▁준비해	-9785
▁직원과	-9786
▁쪽으로	-9787
▁파악에	-9788
▁폭로한	-9789
▁피해는	-9790
▁해경에	-9791
▁형사과	-9792
공원에서	-9793
▁1994	-9794
▁거부하고	-9795
▁검사에서	-9796
▁과학수사	-9797
▁구급차를	-9798
▁귀금속을	-9799
▁금융투자	-9800
▁뉴질랜드	-9801
▁대부분의	-9802
▁발생하고	-9803
▁본격적인	-9804
▁부족하다	-9805
▁불안감을	-9806
▁시스템을	-9807
▁아직까지	-9808
▁않았으며	-9809
▁이외에도	-9810
▁자전거를	-9811
▁제외하고	-9812
▁주변에서	-9813
▁중앙지검	-9814
▁촬영물을	-9815
위원회에서	-9816
▁개인적으로	-9817
▁경찰청장은	-9818
▁주장하면서	-9819
▁peneye	-9820
▁증거인멸교사	-9821
▁피해자들로부터	-9822
1>	-9823
53	-9824
▁※	-9825
▁씻	-9826
▁잦	-9827
▁즐	-9828
▁흰	-9829
경진	-9830
고문	-9831
공단	-9832
근혜	-9833
대금	-9834
동물	-9835
마켓	-9836
만약	-9837
명인	-9838
미투	-9839
법의	-9840
부답	-9841
안산	-9842
여고	-9843
월경	-9844
체는	-9845
측은	-9846
파로	-9847
(10	-9848
▁CP	-9849
▁감싸	-9850
▁구분	-9851
▁놀라	-9852
▁도심	-9853
▁독도	-9854
▁뒤쫓	-9855
▁명단	-9856
▁몸이	-9857
▁미투	-9858
▁민생	-9859
▁발령	-9860
▁세운	-9861
▁소요	-9862
▁손씨	-9863
▁신입	-9864
▁신중	-9865
▁여긴	-9866
▁염려	-9867
▁윤성	-9868
▁처해	-9869
▁취할	-9870
▁행방	-9871
▁헬스	-9872
▁흡입	-9873
수사권	-9874
주간의	-9875
창호법	-9876
▁가석방	-9877
▁갈등이	-9878
▁개그맨	-9879
▁개입한	-9880
▁거래를	-9881
▁나아가	-9882
▁딸에게	-9883
▁마쳤다	-9884
▁물품을	-9885
▁배씨는	-9886
▁번호를	-9887
▁보고서	-9888
▁보도가	-9889
▁보증금	-9890
▁블로그	-9891
▁사인은	-9892
▁생방송	-9893
▁선생님	-9894
▁세상을	-9895
▁손님을	-9896
▁실소유	-9897
▁양형의	-9898
▁예정인	-9899
▁일부러	-9900
▁장례식	-9901
▁전날인	-9902
▁전에도	-9903
▁정신을	-9904
▁죽음에	-9905
▁중국에	-9906
▁질의에	-9907
▁필요성	-9908
▁합의가	-9909
▁흔적을	-9910
▁구속적부	-9911
▁마약사범	-9912
▁마포구의	-9913
▁살펴보면	-9914
▁서울구치	-9915
▁수차례에	-9916
▁유리창을	-9917
▁저질렀고	-9918
▁제출받은	-9919
▁치밀하게	-9920
▁캄보디아	-9921
▁국민청원에	-9922
▁등으로부터	-9923
▁선고공판은	-9924
▁유치장에서	-9925
▁이르기까지	-9926
▁주택가에서	-9927
▁지능범죄수사대는	-9928
▁늑	-9929
▁맨	-9930
▁밭	-9931
과실	-9932
과정	-9933
까봐	-9934
꼈다	-9935
달러	-9936
리면	-9937
문철	-9938
받침	-9939
발생	-9940
별한	-9941
봉사	-9942
수용	-9943
어요	-9944
음모	-9945
이냐	-9946
자도	-9947
청장	-9948
코패	-9949
투쟁	-9950
학기	-9951
향후	-9952
형곤	-9953
ick	-9954
▁bl	-9955
▁결박	-9956
▁과속	-9957
▁관세	-9958
▁교부	-9959
▁김건	-9960
▁김병	-9961
▁논현	-9962
▁따져	-9963
▁방을	-9964
▁사연	-9965
▁성동	-9966
▁안고	-9967
▁안동	-9968
▁저해	-9969
▁창업	-9970
▁체벌	-9971
▁탈출	-9972
▁핸드	-9973
그동안	-9974
단속을	-9975
밀하게	-9976
상조사	-9977
상황을	-9978
업무상	-9979
행위로	-9980
▁고씨의	-9981
▁고형곤	-9982
▁공개돼	-9983
▁관계로	-9984
▁권씨는	-9985
▁기획사	-9986
▁김포시	-9987
▁남겼다	-9988
▁느꼈을	-9989
▁느끼고	-9990
▁다르게	-9991
▁대응할	-9992
▁라이터	-9993
▁말하고	-9994
▁모르고	-9995
▁박모씨	-9996
▁부모와	-9997
▁부분도	-9998
▁사람들	-9999
▁않느냐	-10000
▁의심할	-10001
▁이송돼	-10002
▁이어갈	-10003
▁제출해	-10004
▁주민의	-10005
▁지나지	-10006
▁지적도	-10007
▁찔렀다	-10008
▁출연해	-10009
▁통해서	-10010
▁투자금	-10011
▁포르쉐	-10012
▁혐의의	-10013
▁협조를	-10014
▁흡입한	-10015
고속도로	-10016
▁1200	-10017
▁강화하는	-10018
▁대구지검	-10019
▁도착했을	-10020
▁돌아다니	-10021
▁들어왔다	-10022
▁문형욱은	-10023
▁방송통신	-10024
▁변호인도	-10025
▁보관하고	-10026
▁본부장은	-10027
▁불이익을	-10028
▁서울에서	-10029
▁술집에서	-10030
▁어머니의	-10031
▁용의자가	-10032
▁운전대를	-10033
▁인지하고	-10034
▁저지르고	-10035
▁풀이된다	-10036
▁피해회복	-10037
▁협박하고	-10038
▁협박했다	-10039
천경찰서는	-10040
▁경찰서에서	-10041
▁부탁드린다	-10042
▁사람들에게	-10043
▁사회봉사를	-10044
▁신청했으나	-10045
▁어머니에게	-10046
▁증거인멸을	-10047
▁2020.4	-10048
(9	-10049
47	-10050
▁붕	-10051
▁탔	-10052
▁핑	-10053
강성	-10054
그렇	-10055
년생	-10056
누설	-10057
대화	-10058
로드	-10059
미널	-10060
보상	-10061
수록	-10062
시절	-10063
식도	-10064
여년	-10065
졌을	-10066
통장	-10067
후배	-10068
~30	-10069
▁59	-10070
▁갑작	-10071
▁놓은	-10072
▁돌연	-10073
▁말로	-10074
▁미친	-10075
▁발을	-10076
▁변화	-10077
▁불륜	-10078
▁신규	-10079
▁엄청	-10080
▁연말	-10081
▁위증	-10082
▁유해	-10083
▁은평	-10084
▁적정	-10085
▁정비	-10086
▁체크	-10087
▁초동	-10088
▁탐지	-10089
▁태도	-10090
▁특성	-10091
▁행태	-10092
계약을	-10093
공소권	-10094
길에서	-10095
라이빗	-10096
위에서	-10097
쪽으로	-10098
카지노	-10099
필요한	-10100
하는지	-10101
▁250	-10102
▁yea	-10103
▁거액을	-10104
▁결론이	-10105
▁권한이	-10106
▁기일을	-10107
▁나갔다	-10108
▁대표이	-10109
▁마음먹	-10110
▁목소리	-10111
▁범인을	-10112
▁범행도	-10113
▁부모를	-10114
▁분명히	-10115
▁사안의	-10116
▁소재를	-10117
▁수사로	-10118
▁신고는	-10119
▁아내는	-10120
▁어기고	-10121
▁온몸을	-10122
▁올리고	-10123
▁요청해	-10124
▁우연히	-10125
▁위반해	-10126
▁유포된	-10127
▁이자를	-10128
▁인근의	-10129
▁입국한	-10130
▁자해를	-10131
▁적용을	-10132
▁정도를	-10133
▁증거는	-10134
▁증상이	-10135
▁지인인	-10136
▁채팅앱	-10137
▁한국에	-10138
▁했다며	-10139
▁확진자	-10140
미성년자	-10141
앞으로도	-10142
▁고스란히	-10143
▁공무원을	-10144
▁받아들일	-10145
▁보호하고	-10146
▁이유에서	-10147
▁집중하고	-10148
▁경찰청장이	-10149
▁몰래카메라	-10150
▁보호관찰을	-10151
▁본격적으로	-10152
▁인정했지만	-10153
▁직원들에게	-10154
▁텔레그램을	-10155
▁서울중앙지법에서	-10156
(0	-10157
)”	-10158
▁넓	-10159
공여	-10160
끄러	-10161
너무	-10162
능력	-10163
됨에	-10164
률이	-10165
림픽	-10166
물의	-10167
미래	-10168
성남	-10169
식품	-10170
영업	-10171
인트	-10172
조선	-10173
지하	-10174
차선	-10175
추고	-10176
텐츠	-10177
판에	-10178
▁41	-10179
▁겁을	-10180
▁곤란	-10181
▁공표	-10182
▁교인	-10183
▁대선	-10184
▁더해	-10185
▁동행	-10186
▁바뀐	-10187
▁비하	-10188
▁사제	-10189
▁샀다	-10190
▁시비	-10191
▁영통	-10192
▁자는	-10193
▁잠든	-10194
▁조롱	-10195
▁참지	-10196
▁청약	-10197
▁침묵	-10198
▁크지	-10199
▁해고	-10200
▁형제	-10201
교사가	-10202
국민의	-10203
아이의	-10204
았다고	-10205
업무를	-10206
업체를	-10207
영장이	-10208
용으로	-10209
운동을	-10210
운전을	-10211
체계를	-10212
해진다	-10213
▁결정한	-10214
▁고도예	-10215
▁관리를	-10216
▁구성원	-10217
▁국민이	-10218
▁귀가한	-10219
▁김다운	-10220
▁대응에	-10221
▁동기가	-10222
▁뒷받침	-10223
▁면담을	-10224
▁방치돼	-10225
▁보유한	-10226
▁부천시	-10227
▁비춰볼	-10228
▁빠르게	-10229
▁사람에	-10230
▁사이가	-10231
▁살아가	-10232
▁선고할	-10233
▁손씨에	-10234
▁수년간	-10235
▁수많은	-10236
▁여기서	-10237
▁원칙에	-10238
▁의심이	-10239
▁이루어	-10240
▁인정돼	-10241
▁임씨는	-10242
▁전두환	-10243
▁정도에	-10244
▁조건만	-10245
▁주의가	-10246
▁주차장	-10247
▁차관에	-10248
▁촬영을	-10249
▁취지를	-10250
▁한차례	-10251
마스크를	-10252
아버지가	-10253
했습니다	-10254
▁가족들은	-10255
▁기소유예	-10256
▁기초생활	-10257
▁담당하는	-10258
▁대법원이	-10259
▁대북전단	-10260
▁받으면서	-10261
▁부인하며	-10262
▁수면제를	-10263
▁정씨에게	-10264
▁제공받은	-10265
▁헌법재판	-10266
▁호소하는	-10267
▁회원들이	-10268
▁계획적으로	-10269
▁아동학대를	-10270
▁연예기획사	-10271
▁전담수사팀	-10272
▁조직적으로	-10273
▁피고인들의	-10274
▁휴대전화와	-10275
▁2021.1	-10276
▁2021.3	-10277
▁디지털교도소	-10278
46	-10279
>·	-10280
ro	-10281
ts	-10282
~7	-10283
▁벨	-10284
▁삽	-10285
▁컸	-10286
각지	-10287
개와	-10288
개정	-10289
과도	-10290
권의	-10291
나지	-10292
동아	-10293
래퍼	-10294
매수	-10295
부천	-10296
사용	-10297
셨다	-10298
인당	-10299
임이	-10300
전이	-10301
조는	-10302
해줄	-10303
.3%	-10304
~12	-10305
▁경계	-10306
▁공장	-10307
▁관광	-10308
▁군인	-10309
▁규제	-10310
▁규탄	-10311
▁글로	-10312
▁나쁜	-10313
▁다툰	-10314
▁대목	-10315
▁만진	-10316
▁번도	-10317
▁봐도	-10318
▁분실	-10319
▁불은	-10320
▁빚어	-10321
▁산책	-10322
▁승진	-10323
▁일면	-10324
▁입에	-10325
▁자정	-10326
▁지상	-10327
▁찔려	-10328
▁참사	-10329
▁카트	-10330
▁키우	-10331
▁통지	-10332
▁프리	-10333
▁학동	-10334
년에도	-10335
됐는지	-10336
들었다	-10337
방으로	-10338
범죄에	-10339
포한강	-10340
하지도	-10341
.24/	-10342
▁감정이	-10343
▁거래소	-10344
▁검토를	-10345
▁고발인	-10346
▁공공의	-10347
▁공정한	-10348
▁교직원	-10349
▁단체는	-10350
▁달리던	-10351
▁대상자	-10352
▁로비스	-10353
▁룸살롱	-10354
▁만취해	-10355
▁무소속	-10356
▁받아온	-10357
▁법원을	-10358
▁불이익	-10359
▁사과의	-10360
▁사안에	-10361
▁서울역	-10362
▁성분이	-10363
▁순찰차	-10364
▁신청해	-10365
▁실체적	-10366
▁약물을	-10367
▁올라타	-10368
▁운영에	-10369
▁의뢰해	-10370
▁일대를	-10371
▁자녀가	-10372
▁제기돼	-10373
▁중사는	-10374
▁중징계	-10375
▁증언이	-10376
▁쫓아가	-10377
▁펀드를	-10378
▁하나로	-10379
▁한씨는	-10380
▁훼손된	-10381
솜방망이	-10382
▁강화하고	-10383
▁관계자가	-10384
▁내부에서	-10385
▁등지에서	-10386
▁마음으로	-10387
▁방송에서	-10388
▁범죄예방	-10389
▁법정으로	-10390
▁부근에서	-10391
▁부연했다	-10392
▁불가능한	-10393
▁선거운동	-10394
▁않겠다는	-10395
▁전망된다	-10396
▁직원들을	-10397
▁징역형이	-10398
음란물제작	-10399
▁blick	-10400
▁받아들였다	-10401
▁부인했지만	-10402
▁성폭력치료	-10403
▁의도적으로	-10404
▁인적사항을	-10405
▁전화금융사기	-10406
XX	-10407
▁끄	-10408
▁년	-10409
▁뺏	-10410
곡동	-10411
권력	-10412
기억	-10413
는가	-10414
당에	-10415
대회	-10416
려던	-10417
로지	-10418
부분	-10419
삼성	-10420
상공	-10421
석준	-10422
액이	-10423
양육	-10424
원구	-10425
주간	-10426
창원	-10427
친모	-10428
풀이	-10429
.8%	-10430
~10	-10431
▁구호	-10432
▁궁금	-10433
▁나눈	-10434
▁남용	-10435
▁넘길	-10436
▁높이	-10437
▁되어	-10438
▁등산	-10439
▁무려	-10440
▁물색	-10441
▁법을	-10442
▁복부	-10443
▁부양	-10444
▁붕괴	-10445
▁사직	-10446
▁상의	-10447
▁성장	-10448
▁소아	-10449
▁소집	-10450
▁소통	-10451
▁신발	-10452
▁심야	-10453
▁아주	-10454
▁에스	-10455
▁에이	-10456
▁오인	-10457
▁유관	-10458
▁의대	-10459
▁임용	-10460
▁입소	-10461
▁자꾸	-10462
▁저버	-10463
▁제자	-10464
▁주가	-10465
▁테러	-10466
▁패소	-10467
건에서	-10468
대사관	-10469
묻지마	-10470
사령부	-10471
적이다	-10472
(43·	-10473
▁1·2	-10474
▁검출된	-10475
▁것인데	-10476
▁고씨가	-10477
▁국회에	-10478
▁권리를	-10479
▁근처에	-10480
▁높다고	-10481
▁동기에	-10482
▁로비를	-10483
▁말까지	-10484
▁모양새	-10485
▁바라는	-10486
▁박종민	-10487
▁버리고	-10488
▁불송치	-10489
▁빌려준	-10490
▁사실오	-10491
▁서구의	-10492
▁소비자	-10493
▁승객이	-10494
▁심문을	-10495
▁안에는	-10496
▁알게된	-10497
▁위협해	-10498
▁유인한	-10499
▁의하면	-10500
▁인력을	-10501
▁일정한	-10502
▁자녀의	-10503
▁자본시	-10504
▁제출된	-10505
▁조직의	-10506
▁중하다	-10507
▁중환자	-10508
▁초부터	-10509
▁토지를	-10510
▁행사를	-10511
개인정보	-10512
구급대에	-10513
그럼에도	-10514
시설에서	-10515
▁4·15	-10516
▁강간미수	-10517
▁강력하게	-10518
▁꼬집었다	-10519
▁남양유업	-10520
▁동생에게	-10521
▁묵묵부답	-10522
▁반포한강	-10523
▁수억원을	-10524
▁수원고법	-10525
▁수준으로	-10526
▁시민들의	-10527
▁있었으나	-10528
▁작성자는	-10529
▁전수조사	-10530
▁정상으로	-10531
▁정인이가	-10532
▁주차장에	-10533
▁집단폭행	-10534
▁차관에게	-10535
▁협박하는	-10536
정보통신망	-10537
▁있었음에도	-10538
▁측으로부터	-10539
▁프로포폴을	-10540
▁항소했지만	-10541
▁2020.6	-10542
▁2020.10	-10543
-3	-10544
03	-10545
▁켜	-10546
거짓	-10547
군산	-10548
권은	-10549
길이	-10550
단순	-10551
마디	-10552
물질	-10553
법과	-10554
신상	-10555
여자	-10556
유통	-10557
유튜	-10558
재범	-10559
킬러	-10560
편을	-10561
폐쇄	-10562
했나	-10563
.2%	-10564
▁1,	-10565
▁72	-10566
▁강씨	-10567
▁견책	-10568
▁구인	-10569
▁나빠	-10570
▁말은	-10571
▁먹은	-10572
▁먹인	-10573
▁문이	-10574
▁반해	-10575
▁봤을	-10576
▁붙은	-10577
▁비극	-10578
▁비중	-10579
▁수급	-10580
▁승선	-10581
▁안심	-10582
▁암매	-10583
▁언어	-10584
▁없기	-10585
▁여겨	-10586
▁엽기	-10587
▁옮긴	-10588
▁용의	-10589
▁월세	-10590
▁장비	-10591
▁존엄	-10592
▁천사	-10593
▁키워	-10594
▁화순	-10595
▁횟수	-10596
▁후반	-10597
고유정	-10598
공문서	-10599
당국에	-10600
립니다	-10601
문재인	-10602
사이버	-10603
시설에	-10604
았으며	-10605
였으나	-10606
온라인	-10607
왔다고	-10608
지난달	-10609
하우스	-10610
▁강씨가	-10611
▁건강이	-10612
▁검사장	-10613
▁계열사	-10614
▁공개를	-10615
▁그래서	-10616
▁기관에	-10617
▁기소가	-10618
▁당연히	-10619
▁마련을	-10620
▁말리는	-10621
▁매뉴얼	-10622
▁미끼로	-10623
▁벌이는	-10624
▁베란다	-10625
▁분석이	-10626
▁뺑소니	-10627
▁사기와	-10628
▁사망할	-10629
▁사유로	-10630
▁상황은	-10631
▁수감된	-10632
▁숨지는	-10633
▁시민이	-10634
▁시장에	-10635
▁신고된	-10636
▁알려준	-10637
▁언론을	-10638
▁없는데	-10639
▁예정돼	-10640
▁올리는	-10641
▁위장해	-10642
▁위험을	-10643
▁의뢰를	-10644
▁의지를	-10645
▁이동해	-10646
▁익산시	-10647
▁일반인	-10648
▁자신은	-10649
▁접수해	-10650
▁정규직	-10651
▁정씨가	-10652
▁조작해	-10653
▁조현병	-10654
▁중사가	-10655
▁지역의	-10656
▁진술도	-10657
▁착용한	-10658
▁초범인	-10659
▁태우고	-10660
▁통화를	-10661
▁판사가	-10662
▁학생은	-10663
▁행적을	-10664
보호구역	-10665
이었다는	-10666
이었지만	-10667
▁관련해서	-10668
▁담당했던	-10669
▁당시에는	-10670
▁몸싸움을	-10671
▁부당하게	-10672
▁서울고검	-10673
▁승용차에	-10674
▁심각하게	-10675
▁언급하며	-10676
▁온라인에	-10677
▁요구하며	-10678
▁윤씨에게	-10679
▁이동하고	-10680
▁이춘재를	-10681
▁인권침해	-10682
▁일관되게	-10683
▁주거지를	-10684
▁주거지에	-10685
▁주민들이	-10686
▁직권으로	-10687
▁촉구하고	-10688
▁항소심은	-10689
▁형사사법	-10690
▁호텔에서	-10691
▁확보하지	-10692
▁상대적으로	-10693
▁수천만원을	-10694
▁연쇄살인사건	-10695
▁직권남용권리행사방해	-10696
).	-10697
계로	-10698
계의	-10699
나가	-10700
당해	-10701
릭터	-10702
법정	-10703
사체	-10704
승진	-10705
아내	-10706
안은	-10707
암동	-10708
없다	-10709
월쯤	-10710
일께	-10711
입양	-10712
재난	-10713
저희	-10714
주에	-10715
주와	-10716
치의	-10717
파일	-10718
픔을	-10719
향을	-10720
형에	-10721
▁IP	-10722
▁겪는	-10723
▁계모	-10724
▁교내	-10725
▁기도	-10726
▁눈이	-10727
▁뉴욕	-10728
▁느낌	-10729
▁모은	-10730
▁모의	-10731
▁물류	-10732
▁배준	-10733
▁비운	-10734
▁사들	-10735
▁선을	-10736
▁시급	-10737
▁없애	-10738
▁역사	-10739
▁유전	-10740
▁음모	-10741
▁자제	-10742
▁작품	-10743
▁잠정	-10744
▁장윤	-10745
▁조력	-10746
▁조세	-10747
▁종용	-10748
▁종이	-10749
▁준법	-10750
▁진짜	-10751
▁질타	-10752
▁집무	-10753
▁짓을	-10754
▁첨부	-10755
▁최면	-10756
▁피소	-10757
▁후유	-10758
▁훔치	-10759
기관이	-10760
이경진	-10761
졌으며	-10762
화하는	-10763
▁가리지	-10764
▁가했다	-10765
▁감사를	-10766
▁강북구	-10767
▁개설한	-10768
▁거치지	-10769
▁건너던	-10770
▁게시물	-10771
▁곳곳에	-10772
▁곳이다	-10773
▁금은방	-10774
▁녹원씨	-10775
▁대금을	-10776
▁더보기	-10777
▁도구를	-10778
▁마사지	-10779
▁몰다가	-10780
▁무참히	-10781
▁민원을	-10782
▁방향을	-10783
▁보내지	-10784
▁보도를	-10785
▁사태와	-10786
▁사표를	-10787
▁성북구	-10788
▁소개한	-10789
▁소유의	-10790
▁소지가	-10791
▁연루돼	-10792
▁열심히	-10793
▁의견도	-10794
▁이유도	-10795
▁일으켜	-10796
▁접속해	-10797
▁지난주	-10798
▁찾아온	-10799
▁촬영된	-10800
▁충격과	-10801
▁택시에	-10802
▁표현을	-10803
▁하느냐	-10804
▁화가나	-10805
▁회의를	-10806
발적으로	-10807
여만원의	-10808
이었으나	-10809
청소년을	-10810
▁100%	-10811
▁가족들의	-10812
▁공개하고	-10813
▁대구에서	-10814
▁무더기로	-10815
▁밝혀지지	-10816
▁버스기사	-10817
▁수사전담	-10818
▁숙소에서	-10819
▁시작으로	-10820
▁아버지와	-10821
▁유흥주점	-10822
▁정보공개	-10823
▁직무유기	-10824
▁표창장을	-10825
▁해달라고	-10826
▁검찰총장이	-10827
▁교도소에서	-10828
▁다세대주택	-10829
▁수사기관이	-10830
▁음란행위를	-10831
▁이송됐지만	-10832
▁포털사이트	-10833
▁피고인들이	-10834
동부경찰서는	-10835
심의위원회를	-10836
▁기자회견에서	-10837
▁특수재물손괴	-10838
▁국민참여재판을	-10839
▁영등포경찰서는	-10840
1,	-10841
up	-10842
결제	-10843
광고	-10844
국정	-10845
기부	-10846
났던	-10847
내지	-10848
동료	-10849
력에	-10850
세종	-10851
역에	-10852
용지	-10853
용품	-10854
자격	-10855
제품	-10856
조무	-10857
주소	-10858
줘야	-10859
크를	-10860
텐데	-10861
(13	-10862
.9%	-10863
▁강경	-10864
▁객실	-10865
▁걸릴	-10866
▁고유	-10867
▁동참	-10868
▁면책	-10869
▁발전	-10870
▁벗겨	-10871
▁상임	-10872
▁세무	-10873
▁수서	-10874
▁쉼터	-10875
▁시정	-10876
▁오류	-10877
▁요금	-10878
▁윗선	-10879
▁임금	-10880
▁자숙	-10881
▁주기	-10882
▁중태	-10883
▁직위	-10884
▁청담	-10885
▁파출	-10886
▁하니	-10887
▁헌재	-10888
▁현황	-10889
▁환수	-10890
수욕장	-10891
았는데	-10892
장치를	-10893
증으로	-10894
쳤다는	-10895
판결을	-10896
행각을	-10897
(34·	-10898
▁강씨의	-10899
▁강훈은	-10900
▁건물에	-10901
▁것이라	-10902
▁게임을	-10903
▁경찰도	-10904
▁공문을	-10905
▁관계인	-10906
▁교사는	-10907
▁금융위	-10908
▁남구의	-10909
▁네이버	-10910
▁다니며	-10911
▁대검은	-10912
▁도착해	-10913
▁두려움	-10914
▁들어갈	-10915
▁마련된	-10916
▁명확한	-10917
▁문서를	-10918
▁바람에	-10919
▁병원을	-10920
▁부검의	-10921
▁브랜드	-10922
▁사각지	-10923
▁수준인	-10924
▁실형에	-10925
▁업체를	-10926
▁온몸에	-10927
▁우려해	-10928
▁울산시	-10929
▁유흥업	-10930
▁이후에	-10931
▁잡았다	-10932
▁주민은	-10933
▁지금도	-10934
▁지키지	-10935
▁참작할	-10936
▁챙겼다	-10937
▁카드를	-10938
▁커지고	-10939
▁테이블	-10940
▁특검은	-10941
▁하기로	-10942
▁후원금	-10943
구속영장	-10944
▁1986	-10945
▁고소장이	-10946
▁명확하게	-10947
▁미안하다	-10948
▁부부에게	-10949
▁부시장은	-10950
▁사이코패	-10951
▁석방됐다	-10952
▁성적으로	-10953
▁소방대원	-10954
▁수사본부	-10955
▁신용카드	-10956
▁아니지만	-10957
▁엄중하게	-10958
▁요청했고	-10959
▁위협하는	-10960
▁의학전문	-10961
▁이르렀다	-10962
▁자료사진	-10963
▁자신들이	-10964
▁적색수배	-10965
▁집계됐다	-10966
▁촬영하고	-10967
▁출입기자	-10968
▁파악하는	-10969
▁현장에는	-10970
▁확진자가	-10971
▁회삿돈을	-10972
▁휘발유를	-10973
피해자들은	-10974
▁긴급체포해	-10975
▁부장검사는	-10976
▁아버지에게	-10977
▁여자친구의	-10978
▁인명피해는	-10979
▁정상적으로	-10980
▁택시기사가	-10981
▁횡단보도를	-10982
▁2020.5	-10983
▁2021.5	-10984
▁보통군사법원	-10985
▁서울시교육청	-10986
▁아동복지법상	-10987
▁2019.10	-10988
kj	-10989
▁꼼	-10990
▁맹	-10991
▁탁	-10992
감시	-10993
감에	-10994
권과	-10995
규제	-10996
됐기	-10997
롯데	-10998
만이	-10999
미국	-11000
사형	-11001
상은	-11002
소의	-11003
액은	-11004
예비	-11005
웠던	-11006
유출	-11007
자연	-11008
죄질	-11009
직접	-11010
처가	-11011
출금	-11012
특검	-11013
행단	-11014
(15	-11015
.6%	-11016
▁가득	-11017
▁개의	-11018
▁건축	-11019
▁걸고	-11020
▁기동	-11021
▁김규	-11022
▁눈에	-11023
▁다르	-11024
▁돌며	-11025
▁돌입	-11026
▁래퍼	-11027
▁맡겨	-11028
▁미지	-11029
▁바꾼	-11030
▁벌일	-11031
▁선별	-11032
▁원본	-11033
▁이관	-11034
▁이자	-11035
▁저하	-11036
▁전가	-11037
▁중복	-11038
▁지배	-11039
▁지분	-11040
▁질병	-11041
▁취급	-11042
▁치명	-11043
▁편도	-11044
▁평화	-11045
▁행복	-11046
교사는	-11047
김씨는	-11048
대법원	-11049
랫동안	-11050
리거나	-11051
변에서	-11052
의약품	-11053
전투비	-11054
.13/	-11055
9000	-11056
▁lkj	-11057
▁감안할	-11058
▁강지환	-11059
▁결혼을	-11060
▁계좌에	-11061
▁계획적	-11062
▁구입해	-11063
▁기재된	-11064
▁기존에	-11065
▁나오자	-11066
▁대구시	-11067
▁동생은	-11068
▁두려워	-11069
▁막대한	-11070
▁매출채	-11071
▁명령도	-11072
▁모습은	-11073
▁못하자	-11074
▁무조건	-11075
▁문제에	-11076
▁발부된	-11077
▁부인해	-11078
▁사안을	-11079
▁사태에	-11080
▁손님이	-11081
▁신원이	-11082
▁신호를	-11083
▁아기가	-11084
▁양주시	-11085
▁여론이	-11086
▁여파로	-11087
▁원심이	-11088
▁원하고	-11089
▁위치를	-11090
▁의뢰할	-11091
▁이어가	-11092
▁인물이	-11093
▁입장문	-11094
▁있거나	-11095
▁자금이	-11096
▁자신도	-11097
▁전주의	-11098
▁지사의	-11099
▁차량과	-11100
▁캐릭터	-11101
▁핫라인	-11102
▁현주엽	-11103
▁환자가	-11104
북한운동	-11105
심에서는	-11106
.2020	-11107
▁검사에게	-11108
▁검찰개혁	-11109
▁경제범죄	-11110
▁관계자에	-11111
▁관련해선	-11112
▁대신증권	-11113
▁배임수재	-11114
▁변호사법	-11115
▁비밀번호	-11116
▁사라졌다	-11117
▁살인죄를	-11118
▁시작되자	-11119
▁신한금융	-11120
▁알려지자	-11121
▁앞으로도	-11122
▁요구하자	-11123
▁이용촉진	-11124
▁일어났다	-11125
▁주민들은	-11126
▁지급하지	-11127
▁최소한의	-11128
▁피해금액	-11129
▁현금으로	-11130
▁확대하고	-11131
피고인들이	-11132
▁대통령민정	-11133
▁외할머니로	-11134
▁전주재판부	-11135
▁서울북부지검	-11136
▁중부경찰서는	-11137
청소년의성보호	-11138
▁도로교통법위반	-11139
99	-11140
ou	-11141
▁O	-11142
▁낭	-11143
▁싣	-11144
▁칸	-11145
▁탕	-11146
공연	-11147
누군	-11148
니스	-11149
당은	-11150
득이	-11151
물품	-11152
범위	-11153
시켰	-11154
악한	-11155
양에	-11156
용히	-11157
이와	-11158
이첩	-11159
정은	-11160
칙을	-11161
클럽	-11162
한을	-11163
현지	-11164
(9)	-11165
▁간접	-11166
▁거친	-11167
▁곳이	-11168
▁광복	-11169
▁기념	-11170
▁김지	-11171
▁내는	-11172
▁노무	-11173
▁당황	-11174
▁매도	-11175
▁몽골	-11176
▁물러	-11177
▁반포	-11178
▁배회	-11179
▁빚을	-11180
▁생길	-11181
▁않기	-11182
▁압송	-11183
▁양쪽	-11184
▁응시	-11185
▁일도	-11186
▁임차	-11187
▁자던	-11188
▁장치	-11189
▁저의	-11190
▁전용	-11191
▁주주	-11192
▁취약	-11193
▁탄핵	-11194
▁특징	-11195
▁피의	-11196
▁해안	-11197
▁허락	-11198
▁형의	-11199
▁혹시	-11200
▁흥덕	-11201
강성명	-11202
개월여	-11203
검사는	-11204
데이트	-11205
드리고	-11206
리기도	-11207
받아야	-11208
성희롱	-11209
이기야	-11210
혐의가	-11211
kang	-11212
▁가치를	-11213
▁간호사	-11214
▁감독은	-11215
▁강력히	-11216
▁계정에	-11217
▁골프채	-11218
▁관리소	-11219
▁교육부	-11220
▁내리쳐	-11221
▁대국민	-11222
▁맞다고	-11223
▁맞았다	-11224
▁버스에	-11225
▁설치돼	-11226
▁수강을	-11227
▁승리는	-11228
▁시신의	-11229
▁시키는	-11230
▁유재수	-11231
▁유족과	-11232
▁이끌어	-11233
▁이용자	-11234
▁일체를	-11235
▁정관계	-11236
▁조건을	-11237
▁조치도	-11238
▁차례로	-11239
▁창원시	-11240
▁최모씨	-11241
▁취했다	-11242
▁통화한	-11243
▁편의를	-11244
▁플랫폼	-11245
▁해외에	-11246
▁향응을	-11247
~2019	-11248
▁간호조무	-11249
▁건설업자	-11250
▁경찰청장	-11251
▁고의성이	-11252
▁괴롭힘을	-11253
▁국정농단	-11254
▁받아왔다	-11255
▁부산지법	-11256
▁수사하던	-11257
▁수산업자	-11258
▁신청서를	-11259
▁적발했다	-11260
▁종결했다	-11261
▁주목된다	-11262
▁진지하게	-11263
▁출동했다	-11264
▁취재진과	-11265
▁택배기사	-11266
▁피해학생	-11267
▁한국에서	-11268
▁현관문을	-11269
▁호소하며	-11270
▁후보자가	-11271
▁경찰로부터	-11272
▁노력하겠다	-11273
▁민정수석실	-11274
▁부장판사가	-11275
▁체포했다고	-11276
라임자산운용	-11277
▁성폭력처벌법	-11278
▁사이버안전과는	-11279
▁험	-11280
게시	-11281
괜찮	-11282
단한	-11283
되던	-11284
등을	-11285
렀고	-11286
목에	-11287
문제	-11288
뮤지	-11289
불원	-11290
사례	-11291
상수	-11292
성희	-11293
아빠	-11294
여부	-11295
우지	-11296
원히	-11297
이하	-11298
쟁을	-11299
정민	-11300
초등	-11301
트와	-11302
▁cl	-11303
▁그로	-11304
▁끼쳐	-11305
▁남매	-11306
▁노모	-11307
▁달성	-11308
▁대낮	-11309
▁도우	-11310
▁말만	-11311
▁미루	-11312
▁받자	-11313
▁발달	-11314
▁변종	-11315
▁부수	-11316
▁소변	-11317
▁소음	-11318
▁수회	-11319
▁숙인	-11320
▁야기	-11321
▁열흘	-11322
▁원래	-11323
▁의류	-11324
▁일련	-11325
▁있냐	-11326
▁잠실	-11327
▁정작	-11328
▁제일	-11329
▁주된	-11330
▁지냈	-11331
▁지체	-11332
▁채권	-11333
▁처할	-11334
▁피할	-11335
▁항고	-11336
▁항상	-11337
▁해악	-11338
▁활성	-11339
범행이	-11340
보안법	-11341
상태가	-11342
층짜리	-11343
(66)	-11344
▁가량을	-11345
▁가장해	-11346
▁것이란	-11347
▁근무를	-11348
▁내역을	-11349
▁대상은	-11350
▁들어오	-11351
▁뛰어내	-11352
▁만지는	-11353
▁면허가	-11354
▁모자를	-11355
▁문구가	-11356
▁밖에서	-11357
▁방식을	-11358
▁보도된	-11359
▁본회의	-11360
▁부담을	-11361
▁부인과	-11362
▁사고는	-11363
▁서울에	-11364
▁성인지	-11365
▁연세대	-11366
▁연이어	-11367
▁영장이	-11368
▁요청할	-11369
▁유권해	-11370
▁의미가	-11371
▁의약품	-11372
▁이날은	-11373
▁이수를	-11374
▁인출해	-11375
▁입건돼	-11376
▁조치할	-11377
▁중구의	-11378
▁중으로	-11379
▁증가한	-11380
▁증세를	-11381
▁진술조	-11382
▁처한다	-11383
▁친구의	-11384
▁친분이	-11385
▁태권도	-11386
▁형태의	-11387
▁환자의	-11388
)2020	-11389
▁2003	-11390
▁가해자와	-11391
▁검찰수사	-11392
▁공인중개	-11393
▁국가정보	-11394
▁금감원은	-11395
▁다투다가	-11396
▁도심에서	-11397
▁변명으로	-11398
▁부산시장	-11399
▁부시장의	-11400
▁불필요한	-11401
▁사람들의	-11402
▁소송에서	-11403
▁수사팀을	-11404
▁신생아를	-11405
▁실시하고	-11406
▁아내에게	-11407
▁않았으나	-11408
▁열어두고	-11409
▁유사강간	-11410
▁이뤄져야	-11411
▁이씨에게	-11412
▁인정하나	-11413
▁접수하고	-11414
▁증거자료	-11415
▁착용하지	-11416
▁청와대는	-11417
▁특가법상	-11418
▁판단이다	-11419
▁폭발물을	-11420
▁한국여성	-11421
범죄수사대	-11422
▁기각했다고	-11423
▁노래방에서	-11424
▁사회복무요	-11425
▁압수수색에	-11426
▁증인신문을	-11427
▁피고인들은	-11428
▁도로교통법상	-11429
▁재판과정에서	-11430
▁경기남부지방경찰청은	-11431
CI	-11432
ef	-11433
▁쪼	-11434
▁혜	-11435
경색	-11436
과장	-11437
년째	-11438
려를	-11439
마자	-11440
백을	-11441
보증	-11442
설팅	-11443
성도	-11444
세의	-11445
안정	-11446
재를	-11447
진단	-11448
테크	-11449
10@	-11450
30@	-11451
▁sm	-11452
▁가야	-11453
▁공용	-11454
▁공주	-11455
▁구리	-11456
▁낙태	-11457
▁농구	-11458
▁다루	-11459
▁다할	-11460
▁당원	-11461
▁맺은	-11462
▁모금	-11463
▁무리	-11464
▁묶고	-11465
▁묶인	-11466
▁문의	-11467
▁법관	-11468
▁법이	-11469
▁보며	-11470
▁상향	-11471
▁수립	-11472
▁위헌	-11473
▁이광	-11474
▁인원	-11475
▁저수	-11476
▁찍게	-11477
▁해상	-11478
계에서	-11479
고발인	-11480
났지만	-11481
노동자	-11482
달라며	-11483
소방서	-11484
업체에	-11485
연합회	-11486
의견을	-11487
자세한	-11488
전력이	-11489
조씨가	-11490
쳤다고	-11491
한다며	-11492
▁20%	-11493
▁hsh	-11494
▁kts	-11495
▁강화할	-11496
▁거뒀다	-11497
▁교육청	-11498
▁기각된	-11499
▁기사가	-11500
▁기재한	-11501
▁끔찍한	-11502
▁끝나는	-11503
▁나이가	-11504
▁내리는	-11505
▁냄새가	-11506
▁다니던	-11507
▁당시의	-11508
▁대상을	-11509
▁말하자	-11510
▁맡았다	-11511
▁문건을	-11512
▁받도록	-11513
▁방어권	-11514
▁보면서	-11515
▁보이며	-11516
▁상반기	-11517
▁성인이	-11518
▁세워진	-11519
▁송치한	-11520
▁수개월	-11521
▁수면제	-11522
▁숙였다	-11523
▁신체에	-11524
▁심경을	-11525
▁아래로	-11526
▁아이들	-11527
▁운영을	-11528
▁음식점	-11529
▁의혹의	-11530
▁이승현	-11531
▁입양한	-11532
▁재범의	-11533
▁전체를	-11534
▁조천읍	-11535
▁주장해	-11536
▁증상을	-11537
▁지목돼	-11538
▁지켜보	-11539
▁처리할	-11540
▁출입문	-11541
▁평가를	-11542
▁풀려난	-11543
▁한문철	-11544
▁합의해	-11545
▁향정신	-11546
▁황성호	-11547
경찰총장	-11548
기관에서	-11549
소방본부	-11550
압수수색	-11551
0330@	-11552
5710@	-11553
~2018	-11554
▁2005	-11555
▁강원랜드	-11556
▁거짓으로	-11557
▁검거하고	-11558
▁게시물을	-11559
▁게시했다	-11560
▁관계자를	-11561
▁국가인권	-11562
▁대해서만	-11563
▁밝히면서	-11564
▁법원행정	-11565
▁사체은닉	-11566
▁살인죄로	-11567
▁상습도박	-11568
▁수사결과	-11569
▁않았다며	-11570
▁억울하다	-11571
▁유기징역	-11572
▁잔혹하고	-11573
▁재수사를	-11574
▁주겠다고	-11575
▁지방선거	-11576
▁지속해서	-11577
▁특별검사	-11578
구속영장을	-11579
피해자들이	-11580
해양경찰서	-11581
-0199,	-11582
▁과정에서도	-11583
▁사이트에서	-11584
▁시민단체가	-11585
▁음식점에서	-11586
▁smkang	-11587
▁여자친구에게	-11588
▁종로경찰서는	-11589
77-0199,	-11590
88-9191,	-11591
32	-11592
49	-11593
56	-11594
NM	-11595
결국	-11596
경의	-11597
고는	-11598
공갈	-11599
과천	-11600
길을	-11601
나도	-11602
발성	-11603
범계	-11604
보조	-11605
실은	-11606
의뢰	-11607
인다	-11608
인력	-11609
처방	-11610
청원	-11611
투기	-11612
화한	-11613
eak	-11614
hin	-11615
▁67	-11616
▁가동	-11617
▁가둔	-11618
▁감봉	-11619
▁관내	-11620
▁김기	-11621
▁김선	-11622
▁김종	-11623
▁끼친	-11624
▁답안	-11625
▁덮어	-11626
▁도구	-11627
▁때와	-11628
▁분량	-11629
▁서산	-11630
▁선언	-11631
▁세부	-11632
▁송구	-11633
▁술값	-11634
▁승소	-11635
▁열쇠	-11636
▁오염	-11637
▁우편	-11638
▁음악	-11639
▁재소	-11640
▁주시	-11641
▁주최	-11642
▁지폐	-11643
▁집주	-11644
▁차원	-11645
▁첩보	-11646
▁치여	-11647
▁하반	-11648
라인을	-11649
지구대	-11650
지청은	-11651
피해를	-11652
해주는	-11653
(67)	-11654
peak	-11655
▁개설해	-11656
▁거리를	-11657
▁과거사	-11658
▁김태성	-11659
▁납득할	-11660
▁넘어뜨	-11661
▁도르지	-11662
▁박상준	-11663
▁벌금을	-11664
▁법조인	-11665
▁보여준	-11666
▁비추어	-11667
▁상태는	-11668
▁손석희	-11669
▁쇼핑몰	-11670
▁수갑을	-11671
▁수수료	-11672
▁수위를	-11673
▁시간대	-11674
▁시작해	-11675
▁아들인	-11676
▁알선한	-11677
▁야산에	-11678
▁양육비	-11679
▁양측의	-11680
▁업체가	-11681
▁영원히	-11682
▁운용사	-11683
▁원장이	-11684
▁유사성	-11685
▁인지한	-11686
▁장애가	-11687
▁재학생	-11688
▁전후로	-11689
▁접근한	-11690
▁중사의	-11691
▁지역에	-11692
▁진안리	-11693
▁처벌해	-11694
▁파주시	-11695
▁한마디	-11696
▁행동은	-11697
▁현관문	-11698
▁회사의	-11699
법원종합	-11700
성보호법	-11701
운전치사	-11702
적으로는	-11703
프라이빗	-11704
▁2004	-11705
▁가해자에	-11706
▁게시글을	-11707
▁공개하지	-11708
▁국민들의	-11709
▁국정감사	-11710
▁그럼에도	-11711
▁내용이다	-11712
▁뇌물공여	-11713
▁반복했다	-11714
▁받고있다	-11715
▁법무부와	-11716
▁분석했다	-11717
▁사체손괴	-11718
▁알려지지	-11719
▁어려움이	-11720
▁엉덩이를	-11721
▁오랫동안	-11722
▁운전자의	-11723
▁위협하고	-11724
▁입장에서	-11725
▁진행하지	-11726
▁처하도록	-11727
▁침해하는	-11728
▁타당하다	-11729
▁해주겠다	-11730
공직선거법	-11731
아동복지법	-11732
peakup	-11733
▁돌려보냈다	-11734
▁문자메시지	-11735
▁보도자료를	-11736
▁여성들에게	-11737
▁유리홀딩스	-11738
▁초등학생을	-11739
▁태스크포스	-11740
중부경찰서는	-11741
▁2021.6	-11742
▁법정구속했다	-11743
▁아르바이트를	-11744
▁인천국제공항	-11745
▁아동복지법위반	-11746
▁현주건조물방화	-11747
▁옹	-11748
검거	-11749
기구	-11750
긴급	-11751
께서	-11752
라뱃	-11753
령에	-11754
리어	-11755
받게	-11756
빨리	-11757
사과	-11758
상당	-11759
야구	-11760
양형	-11761
오해	-11762
우선	-11763
정동	-11764
제기	-11765
죄의	-11766
주행	-11767
진보	-11768
채널	-11769
천안	-11770
철인	-11771
추기	-11772
침을	-11773
토록	-11774
평을	-11775
함과	-11776
화물	-11777
(12	-11778
.22	-11779
99@	-11780
▁al	-11781
▁가평	-11782
▁공탁	-11783
▁과연	-11784
▁구멍	-11785
▁기회	-11786
▁남북	-11787
▁다녔	-11788
▁단톡	-11789
▁답답	-11790
▁당진	-11791
▁도덕	-11792
▁동반	-11793
▁동해	-11794
▁둔갑	-11795
▁막고	-11796
▁명절	-11797
▁모순	-11798
▁변을	-11799
▁빚은	-11800
▁사귀	-11801
▁세탁	-11802
▁소위	-11803
▁알바	-11804
▁유혹	-11805
▁윤리	-11806
▁이의	-11807
▁이체	-11808
▁임실	-11809
▁자칫	-11810
▁종류	-11811
▁주무	-11812
▁최선	-11813
▁침대	-11814
▁칼을	-11815
▁투여	-11816
▁필수	-11817
▁항거	-11818
▁형벌	-11819
▁확신	-11820
▁효자	-11821
▁후송	-11822
겠다며	-11823
디스크	-11824
법무부	-11825
별로는	-11826
사도우	-11827
살인의	-11828
이었고	-11829
장애를	-11830
직원이	-11831
▁“10	-11832
▁가해를	-11833
▁감형돼	-11834
▁결정된	-11835
▁고용한	-11836
▁고의는	-11837
▁공방을	-11838
▁광진구	-11839
▁교육감	-11840
▁구미시	-11841
▁그러던	-11842
▁근절을	-11843
▁기억을	-11844
▁놀이터	-11845
▁대전의	-11846
▁던졌다	-11847
▁데려다	-11848
▁동생의	-11849
▁만전을	-11850
▁범죄자	-11851
▁보조금	-11852
▁부사관	-11853
▁부인을	-11854
▁사태로	-11855
▁삭제한	-11856
▁석씨가	-11857
▁세상에	-11858
▁숨진채	-11859
▁실질적	-11860
▁원으로	-11861
▁인멸할	-11862
▁인정되	-11863
▁입수해	-11864
▁자택을	-11865
▁적용될	-11866
▁접촉한	-11867
▁주한미	-11868
▁죽음을	-11869
▁준수사	-11870
▁총장을	-11871
▁최종훈	-11872
▁친모는	-11873
▁펀드에	-11874
▁프로듀	-11875
▁해결을	-11876
▁행위의	-11877
▁혐의만	-11878
겠습니다	-11879
하기까지	-11880
▁1980	-11881
▁근무하며	-11882
▁녹원씨엔	-11883
▁모양새다	-11884
▁무면허로	-11885
▁박씨에게	-11886
▁방지하기	-11887
▁본회의를	-11888
▁부산고법	-11889
▁상관없이	-11890
▁수사팀이	-11891
▁수익금을	-11892
▁않는다며	-11893
▁약속했다	-11894
▁운전하던	-11895
▁원심에서	-11896
▁유족들이	-11897
▁유족에게	-11898
▁이상으로	-11899
▁인정되는	-11900
▁정당하다	-11901
▁종합했다	-11902
▁지급하는	-11903
▁초과하는	-11904
▁촉구한다	-11905
▁포착했다	-11906
▁폭력조직	-11907
▁프로듀스	-11908
▁합동으로	-11909
▁합의금을	-11910
▁현행법상	-11911
▁강제수사에	-11912
▁검찰총장의	-11913
▁광역수사대	-11914
▁랜딩카지노	-11915
▁선고해달라	-11916
▁실종신고를	-11917
▁원내대표는	-11918
▁종로경찰서	-11919
▁취재진에게	-11920
법원종합청사	-11921
성폭력범죄의	-11922
▁2019.9	-11923
▁징계위원회를	-11924
▁구속기소했다고	-11925
▁여성아동범죄조사부	-11926
▁서울중앙지방법원에서	-11927
43	-11928
5%	-11929
54	-11930
ml	-11931
yh	-11932
▁☎	-11933
▁뭔	-11934
▁칭	-11935
건물	-11936
과에	-11937
관광	-11938
독한	-11939
막기	-11940
벌금	-11941
병이	-11942
보석	-11943
부서	-11944
시계	-11945
안동	-11946
에쿼	-11947
오다	-11948
입원	-11949
자국	-11950
자문	-11951
정도	-11952
존속	-11953
축구	-11954
췄다	-11955
통제	-11956
퇴직	-11957
(16	-11958
.7%	-11959
ays	-11960
▁XX	-11961
▁검정	-11962
▁공적	-11963
▁공통	-11964
▁다섯	-11965
▁라이	-11966
▁링크	-11967
▁머무	-11968
▁민감	-11969
▁베이	-11970
▁부르	-11971
▁상호	-11972
▁신모	-11973
▁신임	-11974
▁영광	-11975
▁운반	-11976
▁원아	-11977
▁음료	-11978
▁재혼	-11979
▁쟁점	-11980
▁점심	-11981
▁조종	-11982
▁줄곧	-11983
▁중소	-11984
▁증여	-11985
▁총기	-11986
▁층간	-11987
▁탈취	-11988
▁포획	-11989
▁표출	-11990
▁한복	-11991
▁허민	-11992
▁흰색	-11993
국수본	-11994
된다면	-11995
딥페이	-11996
로서는	-11997
무면허	-11998
소리를	-11999
에쿼티	-12000
여개를	-12001
역으로	-12002
위생법	-12003
차례의	-12004
(29·	-12005
(70)	-12006
.17/	-12007
ways	-12008
▁140	-12009
▁가졌다	-12010
▁가치가	-12011
▁강간한	-12012
▁공사를	-12013
▁광고를	-12014
▁교사한	-12015
▁그치지	-12016
▁근로자	-12017
▁당일인	-12018
▁당하는	-12019
▁동업자	-12020
▁때에는	-12021
▁무자비	-12022
▁문제의	-12023
▁바꿨다	-12024
▁버려진	-12025
▁범행수	-12026
▁부인이	-12027
▁북구의	-12028
▁비판을	-12029
▁사인이	-12030
▁사회를	-12031
▁상세히	-12032
▁설치를	-12033
▁소동을	-12034
▁손실을	-12035
▁손씨를	-12036
▁수위가	-12037
▁시간은	-12038
▁안된다	-12039
▁엄격한	-12040
▁엄벌에	-12041
▁외에는	-12042
▁우리가	-12043
▁유통한	-12044
▁의료법	-12045
▁이상주	-12046
▁이정섭	-12047
▁인식을	-12048
▁인원은	-12049
▁인정된	-12050
▁작성된	-12051
▁재신청	-12052
▁전반을	-12053
▁직무상	-12054
▁진실이	-12055
▁찾아볼	-12056
▁채무를	-12057
▁처벌은	-12058
▁친동생	-12059
▁카페에	-12060
▁패스트	-12061
▁편지를	-12062
▁행동에	-12063
▁홍씨는	-12064
▁회복할	-12065
▁후보로	-12066
변호사는	-12067
환거래법	-12068
▁chef	-12069
▁강도상해	-12070
▁공동대표	-12071
▁공원에서	-12072
▁과태료를	-12073
▁넘겨받아	-12074
▁대법원에	-12075
▁도착했다	-12076
▁동영상이	-12077
▁디지털포	-12078
▁마땅하다	-12079
▁밝히기도	-12080
▁부사장과	-12081
▁생각하지	-12082
▁승용차가	-12083
▁유치장에	-12084
▁의식불명	-12085
▁이동했다	-12086
▁인식하고	-12087
▁제시했다	-12088
▁지인들과	-12089
▁처벌해야	-12090
▁취재진을	-12091
▁친구에게	-12092
▁카페에서	-12093
▁필요하면	-12094
▁협력업체	-12095
▁형식으로	-12096
▁검거했다고	-12097
▁그러면서도	-12098
▁운전자에게	-12099
▁일방적으로	-12100
▁자본시장과	-12101
▁지난해까지	-12102
▁지난해부터	-12103
▁피해자와의	-12104
▁always	-12105
▁광주고등법원	-12106
▁남부경찰서는	-12107
▁특별수사본부	-12108
▁휴대전화에서	-12109
▁T	-12110
▁꿇	-12111
▁쥐	-12112
강정	-12113
건과	-12114
고양	-12115
단기	-12116
대장	-12117
듯이	-12118
물산	-12119
변경	-12120
보장	-12121
비와	-12122
상실	-12123
숨진	-12124
시법	-12125
실히	-12126
우울	-12127
이제	-12128
익산	-12129
자흐	-12130
작성	-12131
장현	-12132
테니	-12133
한강	-12134
현석	-12135
현정	-12136
힌다	-12137
.1%	-12138
▁58	-12139
▁63	-12140
▁겨냥	-12141
▁군에	-12142
▁글에	-12143
▁기저	-12144
▁기증	-12145
▁김형	-12146
▁꾸며	-12147
▁나흘	-12148
▁녹색	-12149
▁능력	-12150
▁대조	-12151
▁뒷좌	-12152
▁들통	-12153
▁망가	-12154
▁맞고	-12155
▁목에	-12156
▁방범	-12157
▁부지	-12158
▁붙인	-12159
▁사하	-12160
▁생겨	-12161
▁섰다	-12162
▁소화	-12163
▁술집	-12164
▁신동	-12165
▁신축	-12166
▁싶어	-12167
▁용산	-12168
▁유서	-12169
▁이마	-12170
▁이은	-12171
▁입회	-12172
▁자극	-12173
▁잔고	-12174
▁장남	-12175
▁전략	-12176
▁조속	-12177
▁진위	-12178
▁집결	-12179
▁추세	-12180
▁친자	-12181
▁친척	-12182
▁하남	-12183
검사의	-12184
들과의	-12185
렌식을	-12186
사건에	-12187
사건은	-12188
석에서	-12189
시키기	-12190
었는지	-12191
운전자	-12192
인지는	-12193
테이너	-12194
해서는	-12195
(46·	-12196
(69)	-12197
.12/	-12198
▁1.5	-12199
▁80%	-12200
▁ENM	-12201
▁가격한	-12202
▁가벼워	-12203
▁강서구	-12204
▁거래가	-12205
▁결정은	-12206
▁고래고	-12207
▁고려대	-12208
▁고의를	-12209
▁공조해	-12210
▁구급대	-12211
▁국제공	-12212
▁규정이	-12213
▁누구나	-12214
▁던지고	-12215
▁되풀이	-12216
▁두번째	-12217
▁드라마	-12218
▁라임의	-12219
▁모습도	-12220
▁모았다	-12221
▁반성문	-12222
▁받다가	-12223
▁밝히며	-12224
▁범인의	-12225
▁보고한	-12226
▁보험사	-12227
▁보호자	-12228
▁분들이	-12229
▁사천시	-12230
▁서울로	-12231
▁석씨는	-12232
▁성적인	-12233
▁송환을	-12234
▁수상한	-12235
▁수익금	-12236
▁숨기고	-12237
▁시끄럽	-12238
▁심리적	-12239
▁아꼈다	-12240
▁않아도	-12241
▁없으니	-12242
▁외압을	-12243
▁윤씨에	-12244
▁이뤄져	-12245
▁자격을	-12246
▁자신에	-12247
▁제주도	-12248
▁중순께	-12249
▁청원이	-12250
▁친부가	-12251
▁판결은	-12252
▁판매해	-12253
▁행위와	-12254
딥페이크	-12255
억원으로	-12256
웰컴투비	-12257
폐쇄회로	-12258
▁7000	-12259
▁가해학생	-12260
▁공무원의	-12261
▁공유하는	-12262
▁교회에서	-12263
▁귀가하던	-12264
▁근처에서	-12265
▁대부분은	-12266
▁대한항공	-12267
▁마련하고	-12268
▁무겁다고	-12269
▁문화상품	-12270
▁보험사기	-12271
▁생각하면	-12272
▁서울서부	-12273
▁이사장이	-12274
▁입건하고	-12275
▁장관에게	-12276
▁정확하게	-12277
▁제공하고	-12278
▁증거은닉	-12279
▁출입문을	-12280
▁특별감찰	-12281
▁특수강도	-12282
▁풀려났다	-12283
▁하겠다고	-12284
▁항소했고	-12285
▁해운대구	-12286
▁현장으로	-12287
▁경찰관들이	-12288
▁대검찰청에	-12289
▁도박사이트	-12290
▁브리핑에서	-12291
▁사회적으로	-12292
▁삼성바이오	-12293
▁스트레스를	-12294
▁알려졌으며	-12295
▁약식명령을	-12296
▁요구했지만	-12297
▁의붓아들의	-12298
▁전북경찰청	-12299
웰컴투비디오	-12300
▁관악경찰서는	-12301
▁부산교도소에	-12302
▁신상정보공개	-12303
프라이빗에쿼티	-12304
▁화성연쇄살인사건의	-12305
▁코링크프라이빗에쿼티	-12306
FC	-12307
PR	-12308
▁w	-12309
▁딱	-12310
▁족	-12311
검색	-12312
경영	-12313
곳은	-12314
금리	-12315
눔의	-12316
님이	-12317
다리	-12318
담한	-12319
동강	-12320
봉투	-12321
비서	-12322
서구	-12323
송동	-12324
식사	-12325
연습	-12326
오른	-12327
인정	-12328
주영	-12329
주한	-12330
천절	-12331
체로	-12332
체에	-12333
팔찌	-12334
표가	-12335
하루	-12336
화점	-12337
anc	-12338
▁52	-12339
▁88	-12340
▁갓갓	-12341
▁공작	-12342
▁공지	-12343
▁국외	-12344
▁급히	-12345
▁남경	-12346
▁넘기	-12347
▁대안	-12348
▁뒤통	-12349
▁등재	-12350
▁떠넘	-12351
▁렌트	-12352
▁맡긴	-12353
▁목이	-12354
▁묶어	-12355
▁묶은	-12356
▁바른	-12357
▁법과	-12358
▁부순	-12359
▁부작	-12360
▁스파	-12361
▁실망	-12362
▁싶지	-12363
▁앞을	-12364
▁오던	-12365
▁원금	-12366
▁유의	-12367
▁의전	-12368
▁인기	-12369
▁잠겨	-12370
▁전산	-12371
▁정계	-12372
▁촉발	-12373
▁친족	-12374
▁코카	-12375
▁행세	-12376
▁호기	-12377
▁환각	-12378
교수가	-12379
그런데	-12380
당국이	-12381
명에서	-12382
튜디오	-12383
.15/	-12384
2021	-12385
▁갈비뼈	-12386
▁것이며	-12387
▁겪었을	-12388
▁고려한	-12389
▁고문을	-12390
▁고양시	-12391
▁그렇지	-12392
▁기관과	-12393
▁기소할	-12394
▁끝났다	-12395
▁단정할	-12396
▁대출금	-12397
▁도망가	-12398
▁도주해	-12399
▁마치는	-12400
▁먹었다	-12401
▁멈추지	-12402
▁물었고	-12403
▁박범계	-12404
▁박씨와	-12405
▁받겠다	-12406
▁밝히는	-12407
▁법률에	-12408
▁부위에	-12409
▁부탁한	-12410
▁부패가	-12411
▁빼앗고	-12412
▁뿐이다	-12413
▁사업에	-12414
▁사회가	-12415
▁소상공	-12416
▁승인을	-12417
▁시설에	-12418
▁신문을	-12419
▁알권리	-12420
▁운동을	-12421
▁유출된	-12422
▁이광철	-12423
▁이메일	-12424
▁이현우	-12425
▁인근을	-12426
▁인보사	-12427
▁인식이	-12428
▁일이다	-12429
▁잃었다	-12430
▁자체는	-12431
▁장시간	-12432
▁정모씨	-12433
▁제한을	-12434
▁주인이	-12435
▁주장과	-12436
▁지휘를	-12437
▁처리를	-12438
▁촬영물	-12439
▁투표를	-12440
▁판매를	-12441
▁한성희	-12442
▁해왔다	-12443
▁현금이	-12444
▁협의를	-12445
관계자는	-12446
▁1990	-12447
▁감안하면	-12448
▁감정결과	-12449
▁개인적인	-12450
▁공개하는	-12451
▁공연음란	-12452
▁대답했다	-12453
▁대부분이	-12454
▁대통령을	-12455
▁도와달라	-12456
▁밝혀냈다	-12457
▁법적으로	-12458
▁보여주는	-12459
▁부정청탁	-12460
▁사람들을	-12461
▁소속으로	-12462
▁의원에게	-12463
▁이뤄진다	-12464
▁이튿날인	-12465
▁인적사항	-12466
▁인천지검	-12467
▁잔인하게	-12468
▁제조업체	-12469
▁제출했고	-12470
▁존재하지	-12471
▁지검장의	-12472
▁징역이나	-12473
▁차장검사	-12474
▁침대에서	-12475
▁털어놨다	-12476
▁폭로했다	-12477
▁혐의점이	-12478
▁확산으로	-12479
사진상조사	-12480
▁경기남부청	-12481
▁관련자들을	-12482
▁국수본부장	-12483
▁데이트폭력	-12484
▁변호인단은	-12485
▁알려졌지만	-12486
▁예정이었다	-12487
▁최후진술을	-12488
▁페이스북을	-12489
▁피해회복을	-12490
북한운동연합	-12491
▁2021.4	-12492
▁조사과정에서	-12493
▁2020.12	-12494
▁기자간담회에서	-12495
▁법제사법위원회	-12496
▁공판준비기일에서	-12497
-1	-12498
3%	-12499
64	-12500
▁굶	-12501
▁덤	-12502
▁섭	-12503
가게	-12504
개선	-12505
경에	-12506
기존	-12507
나다	-12508
다음	-12509
데다	-12510
려야	-12511
리즈	-12512
림을	-12513
무기	-12514
반은	-12515
배기	-12516
번에	-12517
번의	-12518
부검	-12519
실장	-12520
실제	-12521
용석	-12522
원모	-12523
의붓	-12524
인도	-12525
입학	-12526
진해	-12527
총을	-12528
타임	-12529
투약	-12530
합격	-12531
현주	-12532
화해	-12533
(8)	-12534
.2/	-12535
▁51	-12536
▁“5	-12537
▁가맹	-12538
▁갇혀	-12539
▁고액	-12540
▁공론	-12541
▁김도	-12542
▁김미	-12543
▁끊은	-12544
▁낚시	-12545
▁다퉜	-12546
▁대대	-12547
▁따돌	-12548
▁먹여	-12549
▁바꿀	-12550
▁박사	-12551
▁밟아	-12552
▁벗고	-12553
▁보직	-12554
▁부려	-12555
▁빙자	-12556
▁뿌려	-12557
▁생겼	-12558
▁세입	-12559
▁셋째	-12560
▁수중	-12561
▁시의	-12562
▁실험	-12563
▁실현	-12564
▁연방	-12565
▁예약	-12566
▁오산	-12567
▁완성	-12568
▁장교	-12569
▁재무	-12570
▁전역	-12571
▁전형	-12572
▁조기	-12573
▁참회	-12574
▁처제	-12575
▁출력	-12576
▁치러	-12577
▁킬러	-12578
▁파괴	-12579
▁피켓	-12580
▁하드	-12581
▁한쪽	-12582
▁항변	-12583
▁해온	-12584
▁화상	-12585
교육을	-12586
남편이	-12587
라스틱	-12588
리스트	-12589
산으로	-12590
손으로	-12591
수배를	-12592
심보다	-12593
이거나	-12594
이스트	-12595
조만간	-12596
준강간	-12597
차에서	-12598
터미널	-12599
판에서	-12600
하기에	-12601
했어야	-12602
(10)	-12603
▁강화군	-12604
▁건넸다	-12605
▁공동정	-12606
▁공소권	-12607
▁군산시	-12608
▁기숙사	-12609
▁김규봉	-12610
▁다투던	-12611
▁돌아와	-12612
▁마련한	-12613
▁명백히	-12614
▁바로잡	-12615
▁박근혜	-12616
▁배경을	-12617
▁벌였고	-12618
▁부풀려	-12619
▁사고와	-12620
▁사람과	-12621
▁손목을	-12622
▁손발을	-12623
▁수치인	-12624
▁승객을	-12625
▁신발을	-12626
▁신체부	-12627
▁영유아	-12628
▁외도를	-12629
▁요건을	-12630
▁요구해	-12631
▁용납될	-12632
▁위력에	-12633
▁위원장	-12634
▁의도는	-12635
▁이혼한	-12636
▁인간의	-12637
▁정부와	-12638
▁정씨와	-12639
▁제품을	-12640
▁줄어들	-12641
▁중에도	-12642
▁직원들	-12643
▁징역에	-12644
▁차관과	-12645
▁차익을	-12646
▁채널을	-12647
▁추적이	-12648
▁출산을	-12649
▁친누나	-12650
▁폭발물	-12651
▁하는지	-12652
▁합의에	-12653
▁해경이	-12654
▁활용한	-12655
사모펀드	-12656
지역에서	-12657
▁2002	-12658
▁거부하자	-12659
▁것이었다	-12660
▁경찰관은	-12661
▁공수처에	-12662
▁관계없이	-12663
▁교육감은	-12664
▁누리꾼은	-12665
▁들어서고	-12666
▁미국으로	-12667
▁박사방에	-12668
▁법무부차	-12669
▁보유하고	-12670
▁선수에게	-12671
▁수감됐다	-12672
▁신체접촉	-12673
▁않겠다고	-12674
▁왕기춘은	-12675
▁유포하고	-12676
▁의붓딸을	-12677
▁이동하는	-12678
▁이야기가	-12679
▁인천에서	-12680
▁일하면서	-12681
▁중요하다	-12682
▁지검장을	-12683
▁지나치게	-12684
▁직원들은	-12685
▁처벌불원	-12686
▁컴퓨터를	-12687
▁피해자들	-12688
▁허위자백	-12689
▁현장검증	-12690
의약품안전	-12691
▁0.08%	-12692
▁명령했다고	-12693
▁모방범죄로	-12694
▁범죄수익을	-12695
▁사이코패스	-12696
▁서부경찰서	-12697
▁온라인에서	-12698
▁이송됐으나	-12699
▁입장문에서	-12700
보호전문기관	-12701
▁법정구속됐다	-12702
▁송파경찰서는	-12703
▁사이버수사대는	-12704
▁서울남부지검은	-12705
)·	-12706
ak	-12707
▁V	-12708
▁까	-12709
▁깜	-12710
▁솔	-12711
것도	-12712
구매	-12713
녀를	-12714
동종	-12715
동포	-12716
등의	-12717
라젠	-12718
란이	-12719
렸을	-12720
롯머	-12721
목이	-12722
무근	-12723
민준	-12724
박상	-12725
범인	-12726
사성	-12727
산동	-12728
소득	-12729
신용	-12730
심서	-12731
앤티	-12732
오빠	-12733
원인	-12734
유치	-12735
이면	-12736
정류	-12737
정말	-12738
정엽	-12739
제원	-12740
직무	-12741
트가	-12742
하드	-12743
함께	-12744
행이	-12745
화재	-12746
▁건을	-12747
▁견제	-12748
▁교무	-12749
▁국감	-12750
▁김수	-12751
▁끼어	-12752
▁나도	-12753
▁노린	-12754
▁노숙	-12755
▁누설	-12756
▁답한	-12757
▁당할	-12758
▁동석	-12759
▁마셔	-12760
▁몰라	-12761
▁몰카	-12762
▁밀양	-12763
▁밀쳐	-12764
▁반입	-12765
▁법에	-12766
▁보낼	-12767
▁보살	-12768
▁부처	-12769
▁불린	-12770
▁삼아	-12771
▁서서	-12772
▁속은	-12773
▁수억	-12774
▁시범	-12775
▁시연	-12776
▁신씨	-12777
▁실명	-12778
▁싸움	-12779
▁에어	-12780
▁역무	-12781
▁올랐	-12782
▁외벽	-12783
▁유무	-12784
▁유상	-12785
▁일한	-12786
▁임모	-12787
▁임상	-12788
▁전시	-12789
▁전지	-12790
▁전한	-12791
▁정종	-12792
▁제거	-12793
▁주임	-12794
▁치마	-12795
▁투명	-12796
▁팀장	-12797
▁편집	-12798
▁포탈	-12799
▁하라	-12800
▁협회	-12801
▁흘린	-12802
감염병	-12803
개월과	-12804
과에서	-12805
김봉현	-12806
되지는	-12807
로에서	-12808
마리를	-12809
증명서	-12810
층으로	-12811
치면서	-12812
했거나	-12813
협의회	-12814
(24·	-12815
2018	-12816
▁130	-12817
▁가져간	-12818
▁가하는	-12819
▁감형을	-12820
▁강용석	-12821
▁걷어차	-12822
▁걸었다	-12823
▁고가의	-12824
▁골프장	-12825
▁광범위	-12826
▁교사의	-12827
▁기자가	-12828
▁기준이	-12829
▁남대문	-12830
▁다량의	-12831
▁다투다	-12832
▁답하고	-12833
▁뒤에는	-12834
▁미약한	-12835
▁반려견	-12836
▁방송에	-12837
▁배경에	-12838
▁범죄다	-12839
▁변화가	-12840
▁비교해	-12841
▁비대면	-12842
▁비디오	-12843
▁빠뜨린	-12844
▁빼돌려	-12845
▁사죄의	-12846
▁살인에	-12847
▁살펴볼	-12848
▁성매수	-12849
▁세금을	-12850
▁소중한	-12851
▁신고자	-12852
▁운용역	-12853
▁원만히	-12854
▁원인은	-12855
▁위안부	-12856
▁위장한	-12857
▁윤장현	-12858
▁음식물	-12859
▁의문을	-12860
▁이소연	-12861
▁이용표	-12862
▁이재용	-12863
▁이해가	-12864
▁인수한	-12865
▁자격이	-12866
▁재정비	-12867
▁저지를	-12868
▁전문의	-12869
▁정도는	-12870
▁정의연	-12871
▁조사중	-12872
▁중대성	-12873
▁지분을	-12874
▁지켜본	-12875
▁직원인	-12876
▁진상을	-12877
▁참석해	-12878
▁체계를	-12879
▁출소를	-12880
▁취업을	-12881
▁치료감	-12882
▁특별법	-12883
▁프라이	-12884
▁현저히	-12885
레이시아	-12886
씨에게도	-12887
특례법상	-12888
▁2500	-12889
▁가사도우	-12890
▁관리하는	-12891
▁기억나지	-12892
▁나가겠다	-12893
▁대법원의	-12894
▁대통령과	-12895
▁드러나지	-12896
▁말하면서	-12897
▁모욕적인	-12898
▁모처에서	-12899
▁무단이탈	-12900
▁무시하고	-12901
▁무엇보다	-12902
▁부산지검	-12903
▁사진제공	-12904
▁성범죄로	-12905
▁소명되고	-12906
▁시신으로	-12907
▁식약처는	-12908
▁신고하고	-12909
▁업체에서	-12910
▁오픈채팅	-12911
▁요청하고	-12912
▁의심된다	-12913
▁인터뷰를	-12914
▁일관했다	-12915
▁있는지를	-12916
▁정부합동	-12917
▁주문했다	-12918
▁준비하고	-12919
▁증가하고	-12920
▁징역형에	-12921
▁참석했다	-12922
▁청소년을	-12923
▁초기부터	-12924
▁컨테이너	-12925
▁현지에서	-12926
▁환매중단	-12927
▁훼손하고	-12928
▁훼손하는	-12929
▁공소사실은	-12930
▁머리카락을	-12931
▁미성년자인	-12932
▁발견됐다고	-12933
▁부인했으나	-12934
▁심폐소생술	-12935
▁업무상과실	-12936
▁응급실에서	-12937
▁저질렀다는	-12938
아동학대방지	-12939
지방경찰청에	-12940
화성연쇄살인	-12941
▁금융투자업에	-12942
▁노래주점에서	-12943
▁노원경찰서는	-12944
▁수사과정에서	-12945
▁회장으로부터	-12946
▁speakup	-12947
44	-12948
PD	-12949
▁닦	-12950
▁뚫	-12951
▁쇄	-12952
▁혀	-12953
갑질	-12954
개입	-12955
규칙	-12956
극단	-12957
기능	-12958
랑스	-12959
밴드	-12960
봉기	-12961
분한	-12962
세련	-12963
쇼핑	-12964
순찰	-12965
실과	-12966
언니	-12967
용인	-12968
우열	-12969
응형	-12970
일본	-12971
자리	-12972
전국	-12973
전남	-12974
전파	-12975
접한	-12976
젠더	-12977
집회	-12978
추천	-12979
치매	-12980
투본	-12981
특교	-12982
포르	-12983
항고	-12984
호가	-12985
bro	-12986
mor	-12987
▁KF	-12988
▁“4	-12989
▁감지	-12990
▁강사	-12991
▁경유	-12992
▁공시	-12993
▁구제	-12994
▁군과	-12995
▁꾸짖	-12996
▁나갔	-12997
▁난폭	-12998
▁늦어	-12999
▁단호	-13000
▁대거	-13001
▁롯데	-13002
▁많고	-13003
▁말아	-13004
▁모발	-13005
▁묻은	-13006
▁믿을	-13007
▁법치	-13008
▁벽에	-13009
▁변별	-13010
▁본질	-13011
▁세관	-13012
▁숨긴	-13013
▁스킨	-13014
▁시일	-13015
▁앞당	-13016
▁양도	-13017
▁여군	-13018
▁여죄	-13019
▁우체	-13020
▁위임	-13021
▁인생	-13022
▁잡힌	-13023
▁재생	-13024
▁전개	-13025
▁전무	-13026
▁정민	-13027
▁정정	-13028
▁조희	-13029
▁주재	-13030
▁중형	-13031
▁진압	-13032
▁진학	-13033
▁처인	-13034
▁체중	-13035
▁쳐다	-13036
▁타인	-13037
▁할지	-13038
▁헤아	-13039
▁힘이	-13040
과장은	-13041
는다는	-13042
대금을	-13043
도망할	-13044
병원에	-13045
수술을	-13046
억여원	-13047
여분간	-13048
원심의	-13049
의무를	-13050
인권법	-13051
자들에	-13052
총연맹	-13053
축은행	-13054
해주고	-13055
화운동	-13056
(23·	-13057
(54·	-13058
.10/	-13059
.26/	-13060
uman	-13061
▁가족에	-13062
▁간부가	-13063
▁강승현	-13064
▁게스트	-13065
▁그림을	-13066
▁기각한	-13067
▁남편인	-13068
▁넘어가	-13069
▁덜미가	-13070
▁드러낸	-13071
▁미만의	-13072
▁박수홍	-13073
▁보호할	-13074
▁부리고	-13075
▁부착을	-13076
▁삭제된	-13077
▁새롭게	-13078
▁석씨의	-13079
▁세종시	-13080
▁손바닥	-13081
▁숨기기	-13082
▁슬롯머	-13083
▁않거나	-13084
▁없으면	-13085
▁우리는	-13086
▁원장의	-13087
▁유서를	-13088
▁육체적	-13089
▁의도로	-13090
▁의장은	-13091
▁임의동	-13092
▁입건할	-13093
▁있을지	-13094
▁자세로	-13095
▁적법한	-13096
▁전달책	-13097
▁조카를	-13098
▁중태에	-13099
▁지사가	-13100
▁최초로	-13101
▁친구와	-13102
▁특성상	-13103
▁필요해	-13104
▁합당한	-13105
▁허씨는	-13106
▁확보를	-13107
▁확산을	-13108
▁흔적은	-13109
경찰서와	-13110
변호사와	-13111
윤창호법	-13112
자흐스탄	-13113
투쟁본부	-13114
▁가볍다고	-13115
▁강제수사	-13116
▁경비원을	-13117
▁경비원이	-13118
▁고양이를	-13119
▁공익신고	-13120
▁교육부는	-13121
▁기다리던	-13122
▁내려졌다	-13123
▁노인학대	-13124
▁대표적인	-13125
▁대학원생	-13126
▁몰수보전	-13127
▁분식회계	-13128
▁사무실과	-13129
▁사무실로	-13130
▁사법처리	-13131
▁사안이라	-13132
▁삼성물산	-13133
▁상태였고	-13134
▁솜방망이	-13135
▁수수료를	-13136
▁신속하고	-13137
▁없었지만	-13138
▁여러분께	-13139
▁인정되지	-13140
▁일반적인	-13141
▁일어나지	-13142
▁자금세탁	-13143
▁지적이다	-13144
▁지점에서	-13145
▁참여했다	-13146
▁찾았다가	-13147
▁친구들과	-13148
▁클럽에서	-13149
▁포함되지	-13150
▁확보하기	-13151
▁휘두르고	-13152
yhuman	-13153
▁경비원에게	-13154
▁금융위원회	-13155
▁마무리하고	-13156
▁말레이시아	-13157
▁민정비서관	-13158
▁주장하지만	-13159
▁참고인으로	-13160
등에관한법률	-13161
서부경찰서는	-13162
▁긴급체포됐다	-13163
▁심폐소생술을	-13164
▁정보통신망법	-13165
▁경제범죄형사부	-13166
▁서울중앙지법에	-13167
▁식품의약품안전	-13168
59	-13169
IS	-13170
▁균	-13171
▁씌	-13172
▁폴	-13173
錢主	-13174
개시	-13175
김태	-13176
로에	-13177
름이	-13178
사랑	-13179
수신	-13180
실종	-13181
아무	-13182
안의	-13183
업계	-13184
월초	-13185
의식	-13186
자살	-13187
터리	-13188
특가	-13189
티를	-13190
팀이	-13191
하긴	-13192
하시	-13193
.21	-13194
▁LG	-13195
▁‘(	-13196
▁간이	-13197
▁개통	-13198
▁경각	-13199
▁과천	-13200
▁관찰	-13201
▁교묘	-13202
▁기절	-13203
▁끝날	-13204
▁나자	-13205
▁남원	-13206
▁내일	-13207
▁넣고	-13208
▁노려	-13209
▁논산	-13210
▁놀란	-13211
▁높고	-13212
▁담고	-13213
▁대소	-13214
▁로펌	-13215
▁막는	-13216
▁만일	-13217
▁목과	-13218
▁반항	-13219
▁발행	-13220
▁배신	-13221
▁불에	-13222
▁불쾌	-13223
▁상승	-13224
▁소극	-13225
▁수의	-13226
▁안성	-13227
▁압류	-13228
▁이면	-13229
▁인공	-13230
▁인양	-13231
▁잃게	-13232
▁임박	-13233
▁장롱	-13234
▁전단	-13235
▁조계	-13236
▁조폭	-13237
▁찢어	-13238
▁착각	-13239
▁찬성	-13240
▁총리	-13241
▁측도	-13242
▁카운	-13243
▁카톡	-13244
▁클릭	-13245
▁토론	-13246
▁한모	-13247
▁한해	-13248
▁호전	-13249
▁휴게	-13250
겼다고	-13251
경찰관	-13252
기간에	-13253
내용을	-13254
능력이	-13255
사건과	-13256
으라고	-13257
지원금	-13258
행위는	-13259
.19/	-13260
▁101	-13261
▁감찰에	-13262
▁개선을	-13263
▁개인의	-13264
▁게다가	-13265
▁계기가	-13266
▁공무상	-13267
▁공범이	-13268
▁광복절	-13269
▁국세청	-13270
▁규모가	-13271
▁금지에	-13272
▁기능을	-13273
▁기사는	-13274
▁꼽히는	-13275
▁끝나고	-13276
▁납치해	-13277
▁내리지	-13278
▁단순한	-13279
▁달랐다	-13280
▁도망할	-13281
▁미치는	-13282
▁밖에도	-13283
▁방송인	-13284
▁방으로	-13285
▁사건인	-13286
▁사망케	-13287
▁선관위	-13288
▁설명을	-13289
▁소식이	-13290
▁속옷을	-13291
▁수상히	-13292
▁시행된	-13293
▁실명을	-13294
▁아니며	-13295
▁안승진	-13296
▁어렵게	-13297
▁업체에	-13298
▁업체의	-13299
▁엉덩이	-13300
▁영통구	-13301
▁운전해	-13302
▁의지가	-13303
▁이명박	-13304
▁일본인	-13305
▁잃어버	-13306
▁임정엽	-13307
▁입원해	-13308
▁작업이	-13309
▁장소로	-13310
▁장윤정	-13311
▁조직에	-13312
▁죽였다	-13313
▁증거에	-13314
▁지침을	-13315
▁질렀다	-13316
▁최씨와	-13317
▁추락한	-13318
▁추적한	-13319
▁출신의	-13320
▁친구인	-13321
▁투표용	-13322
▁펀드의	-13323
▁하더라	-13324
▁하정우	-13325
▁항소한	-13326
▁허벅지	-13327
▁형량은	-13328
▁환자를	-13329
교육청에	-13330
행정법원	-13331
▁결정적인	-13332
▁고유정을	-13333
▁김태현의	-13334
▁김태현이	-13335
▁늘어났다	-13336
▁들이받는	-13337
▁말했다고	-13338
▁배당했다	-13339
▁벌이다가	-13340
▁보인다고	-13341
▁사회복지	-13342
▁센터장은	-13343
▁수사망을	-13344
▁순찰차를	-13345
▁스튜디오	-13346
▁엽기적인	-13347
▁올리면서	-13348
▁이유없이	-13349
▁인권위는	-13350
▁일면식도	-13351
▁자산운용	-13352
▁전주지검	-13353
▁청와대의	-13354
▁편의점에	-13355
▁플라스틱	-13356
▁피해액이	-13357
▁피해자로	-13358
▁호송차에	-13359
▁확인되면	-13360
▁확인해야	-13361
▁관련해서도	-13362
▁박사방에서	-13363
▁법원행정처	-13364
▁부당이득을	-13365
▁부인하면서	-13366
▁사이버수사	-13367
▁손해배상을	-13368
▁여자친구인	-13369
▁일치한다는	-13370
▁포토라인에	-13371
▁법무부장관의	-13372
▁서울행정법원	-13373
게티이미지뱅크	-13374
▁과거사진상조사	-13375
▁어린이보호구역	-13376
▁의학전문대학원	-13377
▁서울중앙지방검찰청	-13378
▁성폭력치료프로그램	-13379
▁국립과학수사연구원은	-13380
?’	-13381
RL	-13382
▁붉	-13383
▁빅	-13384
▁십	-13385
▁턱	-13386
▁흙	-13387
끼리	-13388
단원	-13389
당사	-13390
덕진	-13391
문과	-13392
미안	-13393
박이	-13394
반을	-13395
범은	-13396
범의	-13397
비위	-13398
사채	-13399
수와	-13400
숙한	-13401
악의	-13402
였을	-13403
영이	-13404
음식	-13405
이한	-13406
지현	-13407
진연	-13408
질서	-13409
집단	-13410
혁신	-13411
호에	-13412
oud	-13413
▁69	-13414
▁79	-13415
▁89	-13416
▁간곡	-13417
▁고모	-13418
▁공채	-13419
▁과시	-13420
▁과잉	-13421
▁구단	-13422
▁내뱉	-13423
▁다름	-13424
▁다해	-13425
▁달게	-13426
▁대사	-13427
▁대웅	-13428
▁많지	-13429
▁모으	-13430
▁몸통	-13431
▁밀려	-13432
▁보자	-13433
▁부른	-13434
▁산후	-13435
▁상식	-13436
▁상정	-13437
▁수년	-13438
▁숙여	-13439
▁앉은	-13440
▁응원	-13441
▁의장	-13442
▁의지	-13443
▁이진	-13444
▁재량	-13445
▁전관	-13446
▁정선	-13447
▁조서	-13448
▁죽어	-13449
▁중징	-13450
▁차주	-13451
▁친형	-13452
▁폐렴	-13453
▁홀트	-13454
게이트	-13455
경위가	-13456
대학생	-13457
명민준	-13458
범행의	-13459
사람의	-13460
상태에	-13461
신천지	-13462
았으나	-13463
전담부	-13464
했으면	-13465
화하고	-13466
(12)	-13467
(22·	-13468
.22/	-13469
▁145	-13470
▁180	-13471
▁yes	-13472
▁강간을	-13473
▁결과와	-13474
▁경로를	-13475
▁고의에	-13476
▁고통이	-13477
▁구로구	-13478
▁구속의	-13479
▁급여를	-13480
▁나가지	-13481
▁남경읍	-13482
▁내세워	-13483
▁노동자	-13484
▁대표로	-13485
▁뒤에야	-13486
▁뒤집어	-13487
▁무자본	-13488
▁받아낸	-13489
▁버렸다	-13490
▁봤다는	-13491
▁분위기	-13492
▁불분명	-13493
▁비정상	-13494
▁사의를	-13495
▁상고를	-13496
▁새벽에	-13497
▁생겼다	-13498
▁선고해	-13499
▁성평등	-13500
▁소개로	-13501
▁수의를	-13502
▁수천만	-13503
▁시리즈	-13504
▁시키고	-13505
▁식당을	-13506
▁신라젠	-13507
▁양형을	-13508
▁엄마가	-13509
▁연락한	-13510
▁영아를	-13511
▁옆에서	-13512
▁원룸에	-13513
▁윤우열	-13514
▁이번주	-13515
▁이유다	-13516
▁인물인	-13517
▁인상착	-13518
▁인정될	-13519
▁입양모	-13520
▁장관에	-13521
▁쟁점이	-13522
▁저장된	-13523
▁정씨의	-13524
▁정하고	-13525
▁종사자	-13526
▁죄명을	-13527
▁주머니	-13528
▁중랑구	-13529
▁증권사	-13530
▁증명이	-13531
▁지냈다	-13532
▁집회에	-13533
▁처제를	-13534
▁추락해	-13535
▁커졌다	-13536
▁크기의	-13537
▁한국당	-13538
▁한다며	-13539
▁행사해	-13540
▁확실한	-13541
▁흡연한	-13542
개월만에	-13543
구리소년	-13544
범죄단체	-13545
집행유예	-13546
처벌법상	-13547
ancer	-13548
▁감사하다	-13549
▁건물에서	-13550
▁경찰관에	-13551
▁공간에서	-13552
▁광주지검	-13553
▁납품업체	-13554
▁반성하며	-13555
▁버스정류	-13556
▁벌여왔다	-13557
▁법무부의	-13558
▁보수단체	-13559
▁부검결과	-13560
▁부하직원	-13561
▁사람들은	-13562
▁사안으로	-13563
▁사용하지	-13564
▁성실하게	-13565
▁수사해야	-13566
▁시도하고	-13567
▁심리치료	-13568
▁않았는데	-13569
▁암시하는	-13570
▁역학조사	-13571
▁울산시장	-13572
▁있는데도	-13573
▁자금으로	-13574
▁자치경찰	-13575
▁재심청구	-13576
▁적법하게	-13577
▁정무수석	-13578
▁정신감정	-13579
▁정인양을	-13580
▁제기되고	-13581
▁진료기록	-13582
▁진행되지	-13583
▁찾아갔다	-13584
▁찾아냈다	-13585
▁처벌하는	-13586
▁촬영했다	-13587
▁추가됐다	-13588
▁추가적인	-13589
▁통화내역	-13590
▁형사재판	-13591
▁cloud	-13592
▁관계자들의	-13593
▁구체적이고	-13594
▁나체사진을	-13595
▁대표로부터	-13596
▁수사본부장	-13597
▁수색작업을	-13598
▁심신미약을	-13599
▁아동학대가	-13600
▁확인했다고	-13601
▁휴대전화는	-13602
해양경찰서는	-13603
▁녹원씨엔아이	-13604
▁아동성착취물	-13605
▁용산경찰서는	-13606
▁영장실질심사에	-13607
▁경기남부경찰청은	-13608
▁cloudancer	-13609
처벌등에관한특례법위반	-13610
51	-13611
PC	-13612
mj	-13613
▁긁	-13614
▁니	-13615
▁샤	-13616
▁잤	-13617
▁젖	-13618
▁짚	-13619
강세	-13620
강원	-13621
겠나	-13622
경수	-13623
고사	-13624
공유	-13625
나운	-13626
도덕	-13627
독교	-13628
등급	-13629
렀던	-13630
뤘다	-13631
부착	-13632
설을	-13633
수인	-13634
승인	-13635
심판	-13636
쓰고	-13637
었기	-13638
외부	-13639
응급	-13640
이게	-13641
이유	-13642
인숙	-13643
줄이	-13644
차도	-13645
코인	-13646
타민	-13647
택배	-13648
포항	-13649
하되	-13650
(3)	-13651
▁6·	-13652
▁가라	-13653
▁가린	-13654
▁고향	-13655
▁고흥	-13656
▁광양	-13657
▁김호	-13658
▁낮아	-13659
▁내기	-13660
▁녹화	-13661
▁농지	-13662
▁덕진	-13663
▁두절	-13664
▁마라	-13665
▁마이	-13666
▁머지	-13667
▁명칭	-13668
▁무섭	-13669
▁밟고	-13670
▁백골	-13671
▁분이	-13672
▁서부	-13673
▁선착	-13674
▁수단	-13675
▁수영	-13676
▁스프	-13677
▁안녕	-13678
▁여름	-13679
▁왔던	-13680
▁울고	-13681
▁을왕	-13682
▁이력	-13683
▁이영	-13684
▁자의	-13685
▁재임	-13686
▁전공	-13687
▁정영	-13688
▁제발	-13689
▁졸려	-13690
▁주부	-13691
▁중증	-13692
▁칠곡	-13693
▁침범	-13694
▁캐디	-13695
▁판정	-13696
▁하동	-13697
▁한참	-13698
▁합병	-13699
▁해지	-13700
▁허술	-13701
▁화환	-13702
▁후인	-13703
가량을	-13704
고양이	-13705
구치소	-13706
궐선거	-13707
동강변	-13708
라인드	-13709
메신저	-13710
물었다	-13711
선상에	-13712
시의회	-13713
업체의	-13714
여차례	-13715
자리에	-13716
정인아	-13717
줬다는	-13718
지거나	-13719
책임을	-13720
행위의	-13721
...1	-13722
~200	-13723
▁가량의	-13724
▁가슴이	-13725
▁개인적	-13726
▁거주자	-13727
▁검찰을	-13728
▁겪었다	-13729
▁경남도	-13730
▁공분이	-13731
▁교사를	-13732
▁구치소	-13733
▁군인권	-13734
▁규명을	-13735
▁글에는	-13736
▁금전적	-13737
▁내사를	-13738
▁내연남	-13739
▁대응이	-13740
▁됐다는	-13741
▁만났다	-13742
▁말라고	-13743
▁목사를	-13744
▁무관용	-13745
▁바라고	-13746
▁박모양	-13747
▁반성을	-13748
▁법리를	-13749
▁뿌리고	-13750
▁사이인	-13751
▁사태의	-13752
▁선고에	-13753
▁성명을	-13754
▁속이고	-13755
▁시점에	-13756
▁시점은	-13757
▁신청에	-13758
▁실체를	-13759
▁악용한	-13760
▁않으며	-13761
▁양현석	-13762
▁얘기가	-13763
▁어려움	-13764
▁여성인	-13765
▁오로지	-13766
▁운전석	-13767
▁울음을	-13768
▁위반에	-13769
▁위조된	-13770
▁의사는	-13771
▁이날도	-13772
▁이별을	-13773
▁이보다	-13774
▁일했던	-13775
▁입주자	-13776
▁자유를	-13777
▁잘못한	-13778
▁전화가	-13779
▁정차한	-13780
▁조응형	-13781
▁주변의	-13782
▁줄었다	-13783
▁중이라	-13784
▁지위에	-13785
▁지정해	-13786
▁직업이	-13787
▁차례나	-13788
▁총학생	-13789
▁콘텐츠	-13790
▁특검을	-13791
▁파출소	-13792
▁피웠다	-13793
▁합의금	-13794
▁행정관	-13795
▁회복이	-13796
▁효과를	-13797
▁후에는	-13798
분께부터	-13799
지원센터	-13800
해달라며	-13801
▁129,	-13802
▁1998	-13803
▁객관적인	-13804
▁거실에서	-13805
▁경찰관과	-13806
▁공갈미수	-13807
▁관계자와	-13808
▁당사자가	-13809
▁도박자금	-13810
▁떨어졌다	-13811
▁만나주지	-13812
▁말하기도	-13813
▁보여주며	-13814
▁비트코인	-13815
▁상고장을	-13816
▁상습적인	-13817
▁송치되고	-13818
▁수사관이	-13819
▁수사에서	-13820
▁아동관련	-13821
▁아동수당	-13822
▁않으면서	-13823
▁여직원을	-13824
▁연관성이	-13825
▁입구에서	-13826
▁조선일보	-13827
▁지급하고	-13828
▁처리했다	-13829
▁처음에는	-13830
▁청구하는	-13831
▁출동했을	-13832
▁출신으로	-13833
▁피의자에	-13834
▁합의했다	-13835
▁혐의점을	-13836
▁20~30	-13837
▁공익인권법	-13838
▁살해하기로	-13839
▁수사기관은	-13840
▁아이들에게	-13841
▁암호화폐를	-13842
▁입장에서는	-13843
▁재판에서는	-13844
▁진행하면서	-13845
▁피해자들에	-13846
▁하드디스크	-13847
피해자들에게	-13848
▁yesbro	-13849
▁광역수사대는	-13850
▁묵묵부답으로	-13851
▁인천지법에서	-13852
▁영장실질심사는	-13853
▁1577-0199,	-13854
▁1588-9191,	-13855
42	-13856
58	-13857
IP	-13858
SB	-13859
ch	-13860
~9	-13861
▁땐	-13862
▁뭉	-13863
고교	-13864
고래	-13865
귀를	-13866
남동	-13867
남은	-13868
남자	-13869
달을	-13870
림동	-13871
매체	-13872
모욕	-13873
불이	-13874
사이	-13875
선이	-13876
성해	-13877
세무	-13878
신속	-13879
실무	-13880
싶다	-13881
여행	-13882
장관	-13883
재현	-13884
저에	-13885
전형	-13886
주요	-13887
주주	-13888
준법	-13889
체계	-13890
충격	-13891
취를	-13892
캠프	-13893
케팅	-13894
통화	-13895
파이	-13896
퍼니	-13897
호흡	-13898
.30	-13899
.6/	-13900
.7/	-13901
101	-13902
86@	-13903
▁73	-13904
▁77	-13905
▁78	-13906
▁95	-13907
▁98	-13908
▁▲9	-13909
▁가리	-13910
▁각자	-13911
▁갖춘	-13912
▁개가	-13913
▁개념	-13914
▁거냐	-13915
▁경주	-13916
▁괜찮	-13917
▁그중	-13918
▁꼼꼼	-13919
▁난민	-13920
▁높게	-13921
▁놓인	-13922
▁느낄	-13923
▁돈의	-13924
▁들지	-13925
▁듯이	-13926
▁등급	-13927
▁만날	-13928
▁무직	-13929
▁반기	-13930
▁분산	-13931
▁사인	-13932
▁상시	-13933
▁성별	-13934
▁성형	-13935
▁수여	-13936
▁숙소	-13937
▁시사	-13938
▁알리	-13939
▁연속	-13940
▁외면	-13941
▁원활	-13942
▁위축	-13943
▁유감	-13944
▁일축	-13945
▁자원	-13946
▁장대	-13947
▁적어	-13948
▁접한	-13949
▁져야	-13950
▁좋다	-13951
▁주위	-13952
▁찍고	-13953
▁참혹	-13954
▁챙기	-13955
▁첫날	-13956
▁치상	-13957
▁코인	-13958
▁탈세	-13959
▁퇴임	-13960
▁폐업	-13961
▁피가	-13962
▁하천	-13963
▁합계	-13964
▁형편	-13965
스터시	-13966
스토킹	-13967
식으로	-13968
왔으며	-13969
이러한	-13970
조사가	-13971
(36·	-13972
.18/	-13973
.2%)	-13974
more	-13975
▁mmj	-13976
▁one	-13977
▁가정을	-13978
▁각별한	-13979
▁강원도	-13980
▁개천절	-13981
▁경미한	-13982
▁경사는	-13983
▁경위가	-13984
▁고통에	-13985
▁과도한	-13986
▁관측이	-13987
▁구매해	-13988
▁기준에	-13989
▁노송동	-13990
▁논란은	-13991
▁누구도	-13992
▁누명을	-13993
▁늘어날	-13994
▁담보로	-13995
▁대구의	-13996
▁도구로	-13997
▁동구의	-13998
▁되도록	-13999
▁목사의	-14000
▁무리한	-14001
▁민노총	-14002
▁밀수한	-14003
▁박상학	-14004
▁박영수	-14005
▁방안도	-14006
▁배달을	-14007
▁벗어난	-14008
▁보건소	-14009
▁보호와	-14010
▁부족해	-14011
▁분유를	-14012
▁불러내	-14013
▁비난을	-14014
▁사례다	-14015
▁상황과	-14016
▁세웠다	-14017
▁손상을	-14018
▁숙박업	-14019
▁시도해	-14020
▁신고할	-14021
▁심리가	-14022
▁아동과	-14023
▁아이폰	-14024
▁안전한	-14025
▁억지로	-14026
▁업무에	-14027
▁업체는	-14028
▁우려도	-14029
▁원산지	-14030
▁위자료	-14031
▁유원모	-14032
▁유인석	-14033
▁유일한	-14034
▁의사와	-14035
▁이밖에	-14036
▁이씨와	-14037
▁이원호	-14038
▁일종의	-14039
▁작업에	-14040
▁잡히지	-14041
▁장씨와	-14042
▁장제원	-14043
▁재량의	-14044
▁전력도	-14045
▁전원을	-14046
▁전주완	-14047
▁전체의	-14048
▁조직은	-14049
▁조치로	-14050
▁줬다고	-14051
▁지나가	-14052
▁징계가	-14053
▁찾아내	-14054
▁총리는	-14055
▁친모인	-14056
▁친분을	-14057
▁태국인	-14058
▁통보한	-14059
▁프리랜	-14060
▁피고소	-14061
▁하소연	-14062
▁학대의	-14063
▁했다면	-14064
▁협력해	-14065
▁협박성	-14066
▁협박에	-14067
▁협의해	-14068
▁후보를	-14069
명에게는	-14070
받았다는	-14071
산업개발	-14072
시간만에	-14073
증명서를	-14074
트와일러	-14075
▁1388	-14076
▁개정안을	-14077
▁게재했다	-14078
▁공소장을	-14079
▁공수처의	-14080
▁근로기준	-14081
▁기본적인	-14082
▁농수로에	-14083
▁답변했다	-14084
▁당했다며	-14085
▁등장하는	-14086
▁방치했다	-14087
▁부인한다	-14088
▁불량하고	-14089
▁사상자를	-14090
▁소년보호	-14091
▁수원남부	-14092
▁수천만원	-14093
▁심리상담	-14094
▁알선수재	-14095
▁억울하게	-14096
▁연락처를	-14097
▁용의자의	-14098
▁운동처방	-14099
▁이후에는	-14100
▁일각에선	-14101
▁임의제출	-14102
▁잠적했다	-14103
▁전자감독	-14104
▁정도였다	-14105
▁지나가는	-14106
▁차지했다	-14107
▁파악하지	-14108
▁포착됐다	-14109
▁포착하고	-14110
▁프라이팬	-14111
▁확보하는	-14112
범죄처벌법	-14113
지방법원에	-14114
▁개인정보가	-14115
▁거주지에서	-14116
▁결심공판을	-14117
▁경제적으로	-14118
▁관계자들은	-14119
▁대검찰청은	-14120
▁대화방에서	-14121
▁보건복지부	-14122
▁부산시장이	-14123
▁불가능하다	-14124
▁살해했다고	-14125
▁상태였으며	-14126
▁시도했으나	-14127
▁식품위생법	-14128
▁요청했지만	-14129
▁인사청문회	-14130
▁전국적으로	-14131
▁휴대전화가	-14132
국민투쟁본부	-14133
▁2020.3	-14134
▁기금운용본부	-14135
▁동부경찰서는	-14136
▁최후변론에서	-14137
▁byhuman	-14138
▁onemore	-14139
▁서울중앙지검장	-14140
▁서울중앙지법은	-14141
▁대한아동학대방지	-14142
▁제주지방법원에서	-14143
▁왼	-14144
간부	-14145
강남	-14146
객이	-14147
국에	-14148
규정	-14149
극을	-14150
냐고	-14151
대검	-14152
대체	-14153
랜타	-14154
루밍	-14155
루킹	-14156
소비	-14157
수집	-14158
시위	-14159
실명	-14160
어로	-14161
월드	-14162
인간	-14163
있어	-14164
전혀	-14165
철거	-14166
추는	-14167
측이	-14168
치자	-14169
치한	-14170
티슈	-14171
▁64	-14172
▁66	-14173
▁76	-14174
▁99	-14175
▁가기	-14176
▁가학	-14177
▁감당	-14178
▁검문	-14179
▁과징	-14180
▁괴한	-14181
▁글과	-14182
▁기타	-14183
▁길에	-14184
▁내보	-14185
▁단행	-14186
▁동남	-14187
▁동래	-14188
▁동성	-14189
▁돼야	-14190
▁두드	-14191
▁들을	-14192
▁등교	-14193
▁마산	-14194
▁만났	-14195
▁말과	-14196
▁명도	-14197
▁몸캠	-14198
▁미처	-14199
▁믿기	-14200
▁박스	-14201
▁반문	-14202
▁범한	-14203
▁봉투	-14204
▁불원	-14205
▁비관	-14206
▁사격	-14207
▁생기	-14208
▁속죄	-14209
▁손녀	-14210
▁수요	-14211
▁시계	-14212
▁싣고	-14213
▁열려	-14214
▁영양	-14215
▁운항	-14216
▁원망	-14217
▁일가	-14218
▁입사	-14219
▁자율	-14220
▁정수	-14221
▁좁혀	-14222
▁중심	-14223
▁증원	-14224
▁지워	-14225
▁지칭	-14226
▁차용	-14227
▁체험	-14228
▁최저	-14229
▁치열	-14230
▁태양	-14231
▁품위	-14232
▁해준	-14233
교사의	-14234
기간이	-14235
기관은	-14236
까지도	-14237
당에서	-14238
만명이	-14239
만장을	-14240
본부에	-14241
유튜브	-14242
이들은	-14243
인보사	-14244
차량에	-14245
컴퍼니	-14246
포인트	-14247
피해가	-14248
(32·	-14249
(47·	-14250
▁110	-14251
▁4~5	-14252
▁가져와	-14253
▁갈아입	-14254
▁갈취한	-14255
▁강기정	-14256
▁강남역	-14257
▁강훈의	-14258
▁게시된	-14259
▁격분한	-14260
▁고인의	-14261
▁공문서	-14262
▁공조를	-14263
▁괴롭힌	-14264
▁국민을	-14265
▁근거를	-14266
▁금팔찌	-14267
▁나서는	-14268
▁남기고	-14269
▁노출된	-14270
▁높다는	-14271
▁대답을	-14272
▁던지는	-14273
▁동의한	-14274
▁득표율	-14275
▁면책특	-14276
▁목적을	-14277
▁받거나	-14278
▁밝혀질	-14279
▁보관한	-14280
▁보도한	-14281
▁보좌관	-14282
▁부수고	-14283
▁불충분	-14284
▁생계를	-14285
▁서울청	-14286
▁시험을	-14287
▁실시할	-14288
▁악용해	-14289
▁압수해	-14290
▁약사법	-14291
▁언행을	-14292
▁없어서	-14293
▁옮겨진	-14294
▁옳다고	-14295
▁완산구	-14296
▁완주군	-14297
▁왜곡된	-14298
▁요구가	-14299
▁위조해	-14300
▁위해를	-14301
▁이송된	-14302
▁일행은	-14303
▁입히고	-14304
▁잇달아	-14305
▁자다가	-14306
▁자료와	-14307
▁재이첩	-14308
▁정해진	-14309
▁제자를	-14310
▁조직적	-14311
▁준비를	-14312
▁지급을	-14313
▁지정된	-14314
▁진행돼	-14315
▁채취해	-14316
▁처해질	-14317
▁총경과	-14318
▁추가해	-14319
▁출석할	-14320
▁케이블	-14321
▁파장이	-14322
▁학교의	-14323
▁함부로	-14324
▁향하는	-14325
▁혼란을	-14326
▁화재로	-14327
만으로도	-14328
상태에서	-14329
▁가해자인	-14330
▁감염병의	-14331
▁강남구의	-14332
▁검사들이	-14333
▁골절상을	-14334
▁공무원은	-14335
▁관계자의	-14336
▁기부금품	-14337
▁남부지검	-14338
▁들었다고	-14339
▁라임사태	-14340
▁마시다가	-14341
▁받았는데	-14342
▁번호판을	-14343
▁보이기도	-14344
▁보호해야	-14345
▁부동산을	-14346
▁부사장은	-14347
▁부실수사	-14348
▁서귀포시	-14349
▁서비스를	-14350
▁성행위를	-14351
▁수단으로	-14352
▁술접대를	-14353
▁실질적인	-14354
▁안전하게	-14355
▁요청으로	-14356
▁울먹였다	-14357
▁이번에는	-14358
▁일치하는	-14359
▁전동킥보	-14360
▁정인이는	-14361
▁제안했다	-14362
▁제출하고	-14363
▁주력하고	-14364
▁주민에게	-14365
▁주장한다	-14366
▁중대하고	-14367
▁증거물을	-14368
▁진행했고	-14369
▁차림으로	-14370
▁착용하고	-14371
▁참여하는	-14372
▁처해진다	-14373
▁청사에서	-14374
▁청와대가	-14375
▁청와대에	-14376
▁피의사실	-14377
▁혐의점은	-14378
▁후보자의	-14379
성폭력상담	-14380
전투비행단	-14381
▁공무원으로	-14382
▁근무하면서	-14383
▁내부에서는	-14384
▁마무리했다	-14385
▁소환조사를	-14386
▁수면유도제	-14387
▁수원지검은	-14388
▁압수수색이	-14389
▁요구했으나	-14390
▁인과관계가	-14391
▁전반적으로	-14392
▁제출했다고	-14393
▁카자흐스탄	-14394
해양경찰서에	-14395
▁강북경찰서는	-14396
▁경찰관계자는	-14397
▁디지털포렌식	-14398
▁아동청소년의	-14399
▁해덕파워웨이	-14400
▁서울시교육청은	-14401
▁행정안전위원회	-14402
mm	-14403
▁故	-14404
▁곰	-14405
▁꽂	-14406
▁널	-14407
▁닷	-14408
▁케	-14409
▁휠	-14410
곳의	-14411
공장	-14412
단히	-14413
도날	-14414
도우	-14415
들고	-14416
만의	-14417
버거	-14418
분담	-14419
사전	-14420
산이	-14421
서트	-14422
셔서	-14423
셔츠	-14424
스씨	-14425
실화	-14426
여야	-14427
예정	-14428
올해	-14429
원장	-14430
으러	-14431
읍의	-14432
이날	-14433
인증	-14434
자동	-14435
재해	-14436
재호	-14437
종업	-14438
주식	-14439
주현	-14440
진료	-14441
쪽에	-14442
척이	-14443
최고	-14444
취가	-14445
탄을	-14446
표시	-14447
표현	-14448
하신	-14449
해외	-14450
해지	-14451
화면	-14452
회원	-14453
▁81	-14454
▁be	-14455
▁가고	-14456
▁각하	-14457
▁강릉	-14458
▁건에	-14459
▁곡괭	-14460
▁광산	-14461
▁국산	-14462
▁금괴	-14463
▁김민	-14464
▁김소	-14465
▁담을	-14466
▁닷새	-14467
▁동갑	-14468
▁됐을	-14469
▁디스	-14470
▁땅에	-14471
▁맡게	-14472
▁매월	-14473
▁면제	-14474
▁무작	-14475
▁방위	-14476
▁병사	-14477
▁보람	-14478
▁부터	-14479
▁사물	-14480
▁사채	-14481
▁선출	-14482
▁손실	-14483
▁습득	-14484
▁식의	-14485
▁않나	-14486
▁알았	-14487
▁양과	-14488
▁어쩔	-14489
▁연제	-14490
▁온갖	-14491
▁완도	-14492
▁원천	-14493
▁은신	-14494
▁입구	-14495
▁입영	-14496
▁자랑	-14497
▁젠더	-14498
▁주관	-14499
▁주면	-14500
▁중점	-14501
▁집착	-14502
▁차별	-14503
▁철제	-14504
▁코치	-14505
▁통장	-14506
▁해체	-14507
▁행각	-14508
개월된	-14509
경제적	-14510
기사범	-14511
누군가	-14512
르기도	-14513
밖에도	-14514
법원의	-14515
법으로	-14516
식이법	-14517
어떻게	-14518
오면서	-14519
웰스씨	-14520
유가족	-14521
일이다	-14522
청으로	-14523
틀랜타	-14524
학대로	-14525
해주면	-14526
햄버거	-14527
(0.0	-14528
(37·	-14529
(74)	-14530
.14/	-14531
▁170	-14532
▁개정된	-14533
▁건조물	-14534
▁경장은	-14535
▁계부와	-14536
▁고발장	-14537
▁과천시	-14538
▁교회에	-14539
▁구속을	-14540
▁국가의	-14541
▁기간은	-14542
▁기관이	-14543
▁기록과	-14544
▁기술을	-14545
▁기일에	-14546
▁기회가	-14547
▁난다는	-14548
▁노래방	-14549
▁노력도	-14550
▁높이기	-14551
▁뇌경색	-14552
▁다음주	-14553
▁도주를	-14554
▁돌아다	-14555
▁되면서	-14556
▁따르지	-14557
▁마시다	-14558
▁만나고	-14559
▁만나기	-14560
▁멍자국	-14561
▁물리적	-14562
▁미안해	-14563
▁방식의	-14564
▁보건용	-14565
▁비율이	-14566
▁사람도	-14567
▁사망을	-14568
▁사안은	-14569
▁사장을	-14570
▁사체가	-14571
▁사항은	-14572
▁살펴본	-14573
▁살해해	-14574
▁생각은	-14575
▁서장은	-14576
▁성동구	-14577
▁소견이	-14578
▁속였다	-14579
▁수거책	-14580
▁수집된	-14581
▁수집한	-14582
▁아나운	-14583
▁아니기	-14584
▁않을까	-14585
▁알아낸	-14586
▁앞당기	-14587
▁엄중히	-14588
▁엄청난	-14589
▁예정지	-14590
▁외부로	-14591
▁외상이	-14592
▁요구할	-14593
▁우려를	-14594
▁운영해	-14595
▁유도한	-14596
▁의미로	-14597
▁이로써	-14598
▁일행이	-14599
▁입국해	-14600
▁자백이	-14601
▁자세히	-14602
▁장씨를	-14603
▁제안을	-14604
▁조직을	-14605
▁찾아갔	-14606
▁청원구	-14607
▁추행을	-14608
▁출발해	-14609
▁층간소	-14610
▁커지자	-14611
▁태어나	-14612
▁파악된	-14613
▁평가가	-14614
▁프랑스	-14615
▁필요할	-14616
▁한계가	-14617
▁협조해	-14618
▁회사가	-14619
▁휴가를	-14620
도로교통	-14621
법원에서	-14622
지역본부	-14623
청사에서	-14624
피해아동	-14625
학교폭력	-14626
.2021	-14627
▁고검장은	-14628
▁공동으로	-14629
▁관련성이	-14630
▁국방부는	-14631
▁귀가했다	-14632
▁단독주택	-14633
▁당시에도	-14634
▁대중교통	-14635
▁돌아오지	-14636
▁로비스트	-14637
▁마감했다	-14638
▁마트에서	-14639
▁만들어진	-14640
▁미제사건	-14641
▁발부됐다	-14642
▁발생했을	-14643
▁방해했다	-14644
▁변경했다	-14645
▁복도에서	-14646
▁부천지원	-14647
▁사망사고	-14648
▁생활하고	-14649
▁서울시가	-14650
▁순이었다	-14651
▁스마트워	-14652
▁신청하는	-14653
▁여성단체	-14654
▁운전자와	-14655
▁웹사이트	-14656
▁이송했다	-14657
▁이어지는	-14658
▁이첩했다	-14659
▁입주민이	-14660
▁입증하기	-14661
▁정부과천	-14662
▁조현병을	-14663
▁종료됐다	-14664
▁중국에서	-14665
▁중국으로	-14666
▁지명수배	-14667
▁지켜보는	-14668
▁진술서를	-14669
▁질타했다	-14670
▁처벌받을	-14671
▁카트리지	-14672
▁터뜨렸다	-14673
▁형사고발	-14674
▁확인서를	-14675
▁확정되면	-14676
웰스씨앤티	-14677
▁◇2019	-14678
▁구속기소돼	-14679
▁기획부동산	-14680
▁바꿔치기한	-14681
▁방역수칙을	-14682
▁변호사에게	-14683
▁시도했지만	-14684
▁신변보호를	-14685
▁압수수색은	-14686
▁유지했다고	-14687
▁음주측정을	-14688
▁전화번호를	-14689
▁정신질환을	-14690
▁패스트트랙	-14691
▁확정했다고	-14692
▁김천지원에서	-14693
▁아르바이트생	-14694
▁압수수색하고	-14695
▁한국투자증권	-14696
▁정례간담회에서	-14697
▁자유북한운동연합	-14698
▁장애인복지시설에	-14699
52	-14700
tg	-14701
▁t	-14702
▁값	-14703
▁낫	-14704
▁뼈	-14705
각한	-14706
고만	-14707
교안	-14708
구와	-14709
냈고	-14710
렉스	-14711
로워	-14712
로직	-14713
망에	-14714
무마	-14715
박을	-14716
받기	-14717
발이	-14718
보육	-14719
보지	-14720
사대	-14721
손상	-14722
식은	-14723
아는	-14724
아주	-14725
양주	-14726
어업	-14727
연예	-14728
유가	-14729
일병	-14730
정복	-14731
정옥	-14732
중독	-14733
진행	-14734
집이	-14735
척을	-14736
출입	-14737
취업	-14738
커녕	-14739
키로	-14740
트리	-14741
트에	-14742
평화	-14743
합리	-14744
히게	-14745
.29	-14746
.9/	-14747
▁96	-14748
▁가다	-14749
▁경호	-14750
▁교란	-14751
▁구상	-14752
▁국장	-14753
▁권모	-14754
▁그럴	-14755
▁김은	-14756
▁김제	-14757
▁나아	-14758
▁난동	-14759
▁돈만	-14760
▁되팔	-14761
▁들려	-14762
▁매체	-14763
▁무사	-14764
▁밀착	-14765
▁별거	-14766
▁사본	-14767
▁살려	-14768
▁서명	-14769
▁소관	-14770
▁소득	-14771
▁소멸	-14772
▁수렴	-14773
▁수성	-14774
▁수소	-14775
▁수형	-14776
▁시중	-14777
▁앞뒤	-14778
▁어업	-14779
▁엄히	-14780
▁연대	-14781
▁예측	-14782
▁옮겼	-14783
▁원격	-14784
▁육아	-14785
▁이태	-14786
▁일에	-14787
▁잘라	-14788
▁장을	-14789
▁전보	-14790
▁제명	-14791
▁종종	-14792
▁죽일	-14793
▁직속	-14794
▁질책	-14795
▁차기	-14796
▁청장	-14797
▁초대	-14798
▁충동	-14799
▁췌장	-14800
▁칼로	-14801
▁팔찌	-14802
▁한정	-14803
▁홍천	-14804
▁회고	-14805
건이다	-14806
계좌를	-14807
규제법	-14808
대책을	-14809
라뱃길	-14810
로직스	-14811
만원권	-14812
문하고	-14813
방안을	-14814
변호인	-14815
본부세	-14816
사업을	-14817
약품을	-14818
연대는	-14819
위원소	-14820
정규직	-14821
증거가	-14822
했느냐	-14823
협회는	-14824
(42·	-14825
.23/	-14826
.4%’	-14827
ootg	-14828
▁‘27	-14829
▁가입한	-14830
▁강화를	-14831
▁검색한	-14832
▁경상을	-14833
▁계속해	-14834
▁공개해	-14835
▁국회는	-14836
▁그에게	-14837
▁김건모	-14838
▁나쁘고	-14839
▁남자친	-14840
▁내려가	-14841
▁넘었다	-14842
▁노조는	-14843
▁당시에	-14844
▁대책이	-14845
▁동기나	-14846
▁드라이	-14847
▁드러날	-14848
▁떨어뜨	-14849
▁많은데	-14850
▁모텔을	-14851
▁무고한	-14852
▁문구를	-14853
▁미지급	-14854
▁바다에	-14855
▁반복해	-14856
▁방화로	-14857
▁부친이	-14858
▁분들께	-14859
▁사망자	-14860
▁사물을	-14861
▁사장과	-14862
▁사회의	-14863
▁상품을	-14864
▁설명한	-14865
▁성금을	-14866
▁소동이	-14867
▁소방헬	-14868
▁속도로	-14869
▁송금한	-14870
▁술자리	-14871
▁식당에	-14872
▁아무리	-14873
▁아프다	-14874
▁않아서	-14875
▁알리고	-14876
▁여러분	-14877
▁역주행	-14878
▁연구동	-14879
▁연락처	-14880
▁용기를	-14881
▁우울감	-14882
▁의심한	-14883
▁이어나	-14884
▁이웃을	-14885
▁이후로	-14886
▁인원을	-14887
▁장학금	-14888
▁재산상	-14889
▁저에게	-14890
▁저조한	-14891
▁전남편	-14892
▁정계선	-14893
▁조사된	-14894
▁조치에	-14895
▁주변인	-14896
▁주인을	-14897
▁주차돼	-14898
▁주택가	-14899
▁중사를	-14900
▁지적에	-14901
▁직원에	-14902
▁진입을	-14903
▁진주시	-14904
▁진행을	-14905
▁책임자	-14906
▁청원을	-14907
▁추징을	-14908
▁측면이	-14909
▁친딸을	-14910
▁캐나다	-14911
▁타이어	-14912
▁털어놓	-14913
▁특가법	-14914
▁파손한	-14915
▁행사할	-14916
▁확대할	-14917
▁활성화	-14918
▁회사원	-14919
▁효과가	-14920
▁후배를	-14921
대한민국	-14922
받았다고	-14923
업체에서	-14924
의붓아들	-14925
자금세탁	-14926
차적으로	-14927
치매정복	-14928
피해자에	-14929
▁2001	-14930
▁감형됐다	-14931
▁고유정에	-14932
▁곳곳에서	-14933
▁공정거래	-14934
▁김태현을	-14935
▁단정하기	-14936
▁단지에서	-14937
▁대목이다	-14938
▁대상에서	-14939
▁마스크로	-14940
▁반성한다	-14941
▁받아냈다	-14942
▁발견됐고	-14943
▁범죄심리	-14944
▁범죄집단	-14945
▁보고했다	-14946
▁부착명령	-14947
▁분석하는	-14948
▁사람으로	-14949
▁성희롱을	-14950
▁소개했다	-14951
▁수사관을	-14952
▁슬롯머신	-14953
▁신고자는	-14954
▁아니었던	-14955
▁여러가지	-14956
▁여성으로	-14957
▁오전부터	-14958
▁요청서를	-14959
▁유도하는	-14960
▁은행에서	-14961
▁음주측정	-14962
▁이유로도	-14963
▁인지하지	-14964
▁일방적인	-14965
▁임의동행	-14966
▁재판에는	-14967
▁조치됐다	-14968
▁지목했다	-14969
▁추정했다	-14970
▁판단하는	-14971
▁판매하는	-14972
▁포렌식을	-14973
▁프리랜서	-14974
▁피고발인	-14975
▁피해자도	-14976
▁할머니가	-14977
▁해양수산	-14978
▁행정처분	-14979
▁확산돼야	-14980
대책위원회	-14981
세로연구소	-14982
이라면서도	-14983
피해자들의	-14984
▁kootg	-14985
▁간담회에서	-14986
▁교통사고로	-14987
▁득표율내부	-14988
▁로트와일러	-14989
▁마무리됐다	-14990
▁범행이라고	-14991
▁사과드린다	-14992
▁선수들에게	-14993
▁신상공개가	-14994
▁실질적으로	-14995
▁앞당기려면	-14996
▁업무상횡령	-14997
▁이유에서다	-14998
▁자백하면서	-14999
▁자체적으로	-15000
▁주장해왔다	-15001
▁증거인멸의	-15002
▁증인신문이	-15003
▁최종적으로	-15004
▁확정받았다	-15005
▁대학병원으로	-15006
▁도박사이트를	-15007
▁무차별적으로	-15008
▁수원지법에서	-15009
▁유흥주점에서	-15010
▁2019.11	-15011
▁2019.12	-15012
▁‘27.4%’	-15013
▁게티이미지뱅크	-15014
▁동대문경찰서는	-15015
▁정보통신망법상	-15016
▁교통사고처리특례법	-15017
75	-15018
IC	-15019
▁곁	-15020
▁깬	-15021
▁롤	-15022
▁싼	-15023
▁짝	-15024
▁훌	-15025
▁흠	-15026
○○	-15027
고자	-15028
공립	-15029
광석	-15030
국내	-15031
국장	-15032
그래	-15033
네가	-15034
단장	-15035
드바	-15036
라리	-15037
량은	-15038
릇을	-15039
마리	-15040
모사	-15041
문의	-15042
문자	-15043
미콘	-15044
미화	-15045
별장	-15046
보관	-15047
불능	-15048
붓고	-15049
블랙	-15050
비는	-15051
서류	-15052
선에	-15053
성군	-15054
승을	-15055
실한	-15056
심위	-15057
약에	-15058
어촌	-15059
용이	-15060
우려	-15061
원우	-15062
이재	-15063
자다	-15064
장기	-15065
전략	-15066
전력	-15067
정서	-15068
조로	-15069
조의	-15070
지점	-15071
직권	-15072
청법	-15073
터에	-15074
프를	-15075
합병	-15076
회복	-15077
▁85	-15078
▁갖춰	-15079
▁거다	-15080
▁구간	-15081
▁권기	-15082
▁기분	-15083
▁기장	-15084
▁끼워	-15085
▁남해	-15086
▁내밀	-15087
▁농업	-15088
▁뇌사	-15089
▁누적	-15090
▁대자	-15091
▁드문	-15092
▁들러	-15093
▁마비	-15094
▁막은	-15095
▁목졸	-15096
▁배구	-15097
▁사우	-15098
▁산정	-15099
▁설계	-15100
▁소독	-15101
▁승합	-15102
▁쓰인	-15103
▁아끼	-15104
▁알릴	-15105
▁애완	-15106
▁어긋	-15107
▁어울	-15108
▁엑스	-15109
▁여주	-15110
▁영치	-15111
▁외손	-15112
▁우회	-15113
▁이호	-15114
▁인보	-15115
▁일환	-15116
▁입게	-15117
▁입주	-15118
▁입지	-15119
▁잔디	-15120
▁잡혀	-15121
▁장용	-15122
▁저렴	-15123
▁저작	-15124
▁전액	-15125
▁전전	-15126
▁제반	-15127
▁죄에	-15128
▁죽게	-15129
▁최신	-15130
▁친분	-15131
▁탈퇴	-15132
▁테니	-15133
▁통감	-15134
▁피고	-15135
▁해주	-15136
▁해직	-15137
▁홍대	-15138
▁황운	-15139
경감은	-15140
계획을	-15141
교수의	-15142
금지를	-15143
동으로	-15144
등이용	-15145
문으로	-15146
받았고	-15147
범죄는	-15148
부분을	-15149
분가량	-15150
소리가	-15151
시설을	-15152
아시아	-15153
였는데	-15154
오히려	-15155
왔지만	-15156
적이지	-15157
조회를	-15158
지청에	-15159
지하철	-15160
통장을	-15161
폭행을	-15162
하자는	-15163
했으니	-15164
.21/	-15165
.5%)	-15166
▁가격을	-15167
▁가이드	-15168
▁감사원	-15169
▁같았다	-15170
▁같은데	-15171
▁경우를	-15172
▁경인아	-15173
▁계모가	-15174
▁공개될	-15175
▁공격을	-15176
▁구특교	-15177
▁국가를	-15178
▁그었다	-15179
▁김성주	-15180
▁나가는	-15181
▁나선다	-15182
▁나이에	-15183
▁남씨는	-15184
▁논의를	-15185
▁느꼈다	-15186
▁당국에	-15187
▁대상인	-15188
▁대화명	-15189
▁동생과	-15190
▁뒷돈을	-15191
▁마련할	-15192
▁많았고	-15193
▁무겁게	-15194
▁무겁고	-15195
▁무릎을	-15196
▁무시한	-15197
▁문씨는	-15198
▁바이오	-15199
▁받는데	-15200
▁발언이	-15201
▁벨기에	-15202
▁본격화	-15203
▁본사와	-15204
▁분류돼	-15205
▁붙잡은	-15206
▁붙잡혔	-15207
▁사진에	-15208
▁살인은	-15209
▁선후배	-15210
▁소방서	-15211
▁순으로	-15212
▁승강장	-15213
▁시세차	-15214
▁시중에	-15215
▁시행령	-15216
▁싸움을	-15217
▁아기는	-15218
▁아픔을	-15219
▁약속한	-15220
▁언론사	-15221
▁업소를	-15222
▁업주가	-15223
▁옆구리	-15224
▁오후에	-15225
▁올리며	-15226
▁욕조에	-15227
▁원주시	-15228
▁위원회	-15229
▁위험성	-15230
▁유족의	-15231
▁유포해	-15232
▁유현정	-15233
▁이르지	-15234
▁이상한	-15235
▁이어져	-15236
▁이해할	-15237
▁이후인	-15238
▁인권을	-15239
▁일병은	-15240
▁입원한	-15241
▁전현직	-15242
▁절차는	-15243
▁정씨를	-15244
▁제공해	-15245
▁주민철	-15246
▁진실규	-15247
▁차선을	-15248
▁처리한	-15249
▁처인구	-15250
▁탁자에	-15251
▁특검이	-15252
▁판매사	-15253
▁학대에	-15254
▁해상에	-15255
▁행인을	-15256
▁흘렸다	-15257
▁흘리며	-15258
들에게도	-15259
성범죄자	-15260
소송에서	-15261
▁가해자는	-15262
▁강력처벌	-15263
▁거론하며	-15264
▁계좌에서	-15265
▁고발됐다	-15266
▁근무했다	-15267
▁기다렸다	-15268
▁김천지원	-15269
▁남아있는	-15270
▁내려달라	-15271
▁대리인은	-15272
▁동물보호	-15273
▁라임펀드	-15274
▁마련해야	-15275
▁무리하게	-15276
▁부회장은	-15277
▁비난했다	-15278
▁빌려주면	-15279
▁사건발생	-15280
▁사기죄로	-15281
▁상담전화	-15282
▁생각하는	-15283
▁수사했던	-15284
▁심각성을	-15285
▁악의적인	-15286
▁안인득은	-15287
▁양부모에	-15288
▁연기됐다	-15289
▁영상에서	-15290
▁영향력을	-15291
▁요구된다	-15292
▁울먹이며	-15293
▁위해서다	-15294
▁유기치사	-15295
▁의정부시	-15296
▁이날까지	-15297
▁이뤄졌고	-15298
▁이상하게	-15299
▁인터넷을	-15300
▁입었다고	-15301
▁재발하지	-15302
▁전기통신	-15303
▁제기하는	-15304
▁조사하던	-15305
▁조수석에	-15306
▁종업원을	-15307
▁중순부터	-15308
▁진술에서	-15309
▁채팅앱을	-15310
▁책임감을	-15311
▁처리하는	-15312
▁초범이고	-15313
▁파악되지	-15314
▁판단해야	-15315
▁학대하고	-15316
▁허위신고	-15317
▁회의에서	-15318
▁후보자는	-15319
▁공개적으로	-15320
▁국가보안법	-15321
▁기소의견을	-15322
▁대한체육회	-15323
▁만취상태로	-15324
▁범죄전력이	-15325
▁부장판사의	-15326
▁부족하다는	-15327
▁서울시장의	-15328
▁성폭행했다	-15329
▁스쿨존에서	-15330
▁신고했지만	-15331
▁양천경찰서	-15332
▁영장심사를	-15333
▁이뤄졌다고	-15334
▁지적장애를	-15335
▁진술했다고	-15336
▁출입기자단	-15337
▁택시기사의	-15338
▁판매한다는	-15339
▁폭행했다는	-15340
▁피해아동의	-15341
▁학교폭력을	-15342
▁강서경찰서는	-15343
▁부산경찰청은	-15344
▁수서경찰서는	-15345
▁투자자들에게	-15346
▁사전구속영장을	-15347
▁서울남부지검에	-15348
89	-15349
96	-15350
▁껴	-15351
▁넉	-15352
▁엿	-15353
간막	-15354
감반	-15355
결을	-15356
국회	-15357
나를	-15358
담을	-15359
대인	-15360
라렌	-15361
락현	-15362
란법	-15363
마귀	-15364
맨스	-15365
명씩	-15366
바른	-15367
사장	-15368
상도	-15369
소통	-15370
수거	-15371
스는	-15372
스와	-15373
습을	-15374
시신	-15375
안군	-15376
여수	-15377
웨어	-15378
입시	-15379
전환	-15380
줄을	-15381
중지	-15382
증과	-15383
진모	-15384
출산	-15385
출처	-15386
크랩	-15387
타워	-15388
합성	-15389
해보	-15390
했냐	-15391
향정	-15392
(6)	-15393
(70	-15394
▁71	-15395
▁SH	-15396
▁‘3	-15397
▁감옥	-15398
▁골라	-15399
▁공고	-15400
▁구글	-15401
▁끊어	-15402
▁나눴	-15403
▁남지	-15404
▁다각	-15405
▁달간	-15406
▁달래	-15407
▁됐던	-15408
▁레이	-15409
▁만남	-15410
▁맞게	-15411
▁맥주	-15412
▁모범	-15413
▁모터	-15414
▁묻지	-15415
▁미술	-15416
▁미약	-15417
▁바가	-15418
▁배척	-15419
▁변명	-15420
▁부총	-15421
▁부추	-15422
▁부품	-15423
▁사표	-15424
▁시켰	-15425
▁식별	-15426
▁심모	-15427
▁악마	-15428
▁애를	-15429
▁액상	-15430
▁연일	-15431
▁옮기	-15432
▁용이	-15433
▁유세	-15434
▁윤종	-15435
▁이만	-15436
▁이민	-15437
▁이창	-15438
▁인건	-15439
▁전통	-15440
▁제약	-15441
▁조상	-15442
▁주호	-15443
▁진영	-15444
▁채운	-15445
▁탔다	-15446
▁퇴학	-15447
▁하도	-15448
▁허리	-15449
▁혼란	-15450
▁휘말	-15451
과정에	-15452
그렇다	-15453
기에서	-15454
나머지	-15455
년에서	-15456
다시는	-15457
담당관	-15458
렀다고	-15459
사람이	-15460
우리는	-15461
윤씨가	-15462
으려면	-15463
의사를	-15464
이렇게	-15465
저자로	-15466
줬으면	-15467
증거를	-15468
집으로	-15469
플러스	-15470
(72)	-15471
(75)	-15472
....	-15473
.27/	-15474
▁10%	-15475
▁5~6	-15476
▁간곡히	-15477
▁감식을	-15478
▁강남의	-15479
▁걸렸다	-15480
▁경력이	-15481
▁계약금	-15482
▁고령인	-15483
▁과실이	-15484
▁구미의	-15485
▁국토부	-15486
▁규모는	-15487
▁글로벌	-15488
▁급하게	-15489
▁기자는	-15490
▁김천지	-15491
▁나눔의	-15492
▁나섰고	-15493
▁나왔고	-15494
▁남자가	-15495
▁내부를	-15496
▁넘어져	-15497
▁노리고	-15498
▁높았다	-15499
▁느낀다	-15500
▁대성호	-15501
▁데려와	-15502
▁뚜렷한	-15503
▁막았다	-15504
▁만들기	-15505
▁많게는	-15506
▁말리던	-15507
▁머물고	-15508
▁모두가	-15509
▁목사에	-15510
▁목졸라	-15511
▁묻지마	-15512
▁반기수	-15513
▁반복한	-15514
▁버스를	-15515
▁본사를	-15516
▁부위가	-15517
▁분석과	-15518
▁삼았다	-15519
▁생명이	-15520
▁성분을	-15521
▁성형외	-15522
▁세우고	-15523
▁수감돼	-15524
▁싶었다	-15525
▁아동은	-15526
▁없거나	-15527
▁없었을	-15528
▁여성에	-15529
▁여수시	-15530
▁여행을	-15531
▁역량을	-15532
▁예방에	-15533
▁외교부	-15534
▁운동부	-15535
▁운행을	-15536
▁원칙을	-15537
▁위에서	-15538
▁이강세	-15539
▁이상직	-15540
▁이익이	-15541
▁인도를	-15542
▁일일이	-15543
▁입었고	-15544
▁있어도	-15545
▁있었기	-15546
▁자문을	-15547
▁전동차	-15548
▁조용히	-15549
▁조직이	-15550
▁중하고	-15551
▁직전에	-15552
▁차장은	-15553
▁채팅방	-15554
▁책임에	-15555
▁처벌도	-15556
▁처벌법	-15557
▁청구는	-15558
▁청담동	-15559
▁청원에	-15560
▁청주의	-15561
▁초까지	-15562
▁총장과	-15563
▁코뼈가	-15564
▁탑승해	-15565
▁특정된	-15566
▁판결문	-15567
▁펼쳤다	-15568
▁폭행의	-15569
▁하나인	-15570
▁학교를	-15571
▁한강에	-15572
▁해명을	-15573
▁핸드폰	-15574
▁확보할	-15575
▁황당한	-15576
▁흘리고	-15577
검찰에서	-15578
그런데도	-15579
인으로서	-15580
혐의없음	-15581
형사부는	-15582
▁객실에서	-15583
▁거주하고	-15584
▁거주하던	-15585
▁결정된다	-15586
▁공무원에	-15587
▁광주에서	-15588
▁근무하고	-15589
▁금은방에	-15590
▁나오기도	-15591
▁노상에서	-15592
▁단체대화	-15593
▁대상이다	-15594
▁뒤통수를	-15595
▁마스크와	-15596
▁머리카락	-15597
▁목격하고	-15598
▁목소리도	-15599
▁문제점을	-15600
▁반대하는	-15601
▁보고있다	-15602
▁부시장이	-15603
▁사실오인	-15604
▁살인으로	-15605
▁서면으로	-15606
▁수사단계	-15607
▁수십차례	-15608
▁시도하는	-15609
▁시민들은	-15610
▁시인하고	-15611
▁아무것도	-15612
▁양성평등	-15613
▁여성들이	-15614
▁예상되는	-15615
▁외제차를	-15616
▁용의자는	-15617
▁유지하고	-15618
▁유튜브에	-15619
▁이밖에도	-15620
▁이웃주민	-15621
▁적용하는	-15622
▁제시하며	-15623
▁제작진은	-15624
▁제출하지	-15625
▁조주빈에	-15626
▁주민들의	-15627
▁주장했고	-15628
▁중국동포	-15629
▁중이었던	-15630
▁중징계를	-15631
▁진술거부	-15632
▁체포동의	-15633
▁추행하고	-15634
▁친모에게	-15635
▁크게보기	-15636
▁투약하고	-15637
▁투자했다	-15638
▁판매했다	-15639
▁피고인들	-15640
▁한강에서	-15641
▁항소심에	-15642
▁행사했다	-15643
▁현수막을	-15644
▁확인해줄	-15645
▁공소사실로	-15646
▁공판기일에	-15647
▁농수로에서	-15648
▁드러나면서	-15649
▁무기징역이	-15650
▁미필적으로	-15651
▁성폭행하려	-15652
▁수원지법에	-15653
▁순간적으로	-15654
▁실질심사를	-15655
▁여성가족부	-15656
▁옵티머스의	-15657
▁인천지검은	-15658
▁적색수배를	-15659
▁지하철에서	-15660
▁진상조사단	-15661
▁한복판에서	-15662
▁행정안전부	-15663
▁현장에서는	-15664
▁확인됐다고	-15665
특별사법경찰	-15666
▁2021.8	-15667
▁보이스피싱에	-15668
▁성폭행하려다	-15669
PT	-15670
TS	-15671
en	-15672
▁i	-15673
▁겹	-15674
▁맘	-15675
▁싱	-15676
▁톨	-15677
경과	-15678
고객	-15679
광장	-15680
나들	-15681
니저	-15682
님의	-15683
다란	-15684
도당	-15685
동욱	-15686
디션	-15687
머리	-15688
무관	-15689
미에	-15690
배제	-15691
범한	-15692
변에	-15693
부인	-15694
분리	-15695
성동	-15696
수행	-15697
승준	-15698
심신	-15699
아니	-15700
였기	-15701
월급	-15702
유열	-15703
자력	-15704
장비	-15705
전과	-15706
지오	-15707
청과	-15708
최면	-15709
폐기	-15710
하진	-15711
합한	-15712
항은	-15713
향이	-15714
희정	-15715
.8/	-15716
▁간에	-15717
▁건지	-15718
▁결재	-15719
▁고장	-15720
▁규칙	-15721
▁기강	-15722
▁내란	-15723
▁내장	-15724
▁넘은	-15725
▁늑골	-15726
▁달린	-15727
▁당연	-15728
▁대원	-15729
▁돌이	-15730
▁드는	-15731
▁묻고	-15732
▁물질	-15733
▁바지	-15734
▁발간	-15735
▁벌을	-15736
▁범퍼	-15737
▁법사	-15738
▁병무	-15739
▁보름	-15740
▁보존	-15741
▁복합	-15742
▁부두	-15743
▁북부	-15744
▁사자	-15745
▁사촌	-15746
▁선제	-15747
▁성과	-15748
▁성수	-15749
▁성을	-15750
▁소녀	-15751
▁속칭	-15752
▁속한	-15753
▁손목	-15754
▁손잡	-15755
▁아님	-15756
▁애경	-15757
▁영수	-15758
▁예술	-15759
▁오지	-15760
▁왕복	-15761
▁유용	-15762
▁육성	-15763
▁입감	-15764
▁자식	-15765
▁잠입	-15766
▁잡는	-15767
▁전복	-15768
▁전제	-15769
▁정현	-15770
▁조교	-15771
▁주선	-15772
▁주성	-15773
▁진돗	-15774
▁진보	-15775
▁진열	-15776
▁쪼개	-15777
▁채워	-15778
▁출자	-15779
▁트렁	-15780
▁틀어	-15781
▁편입	-15782
▁홍모	-15783
가량의	-15784
감독을	-15785
감으로	-15786
기관을	-15787
동조합	-15788
렸는데	-15789
만원은	-15790
수사관	-15791
스쿨존	-15792
신체적	-15793
심까지	-15794
업체가	-15795
유전자	-15796
이므로	-15797
인이나	-15798
자신이	-15799
조직원	-15800
쳤지만	-15801
취재단	-15802
킹크랩	-15803
회사의	-15804
(30·	-15805
.11/	-15806
▁가능할	-15807
▁게시해	-15808
▁경비실	-15809
▁공방이	-15810
▁공정성	-15811
▁교회를	-15812
▁구미서	-15813
▁구청에	-15814
▁구했다	-15815
▁구혜선	-15816
▁권력형	-15817
▁권익위	-15818
▁글에서	-15819
▁기다려	-15820
▁김락현	-15821
▁대하여	-15822
▁댓글이	-15823
▁똑같은	-15824
▁마시지	-15825
▁맡는다	-15826
▁머물던	-15827
▁몸싸움	-15828
▁몸으로	-15829
▁미혼모	-15830
▁밀치고	-15831
▁밝혀야	-15832
▁방문을	-15833
▁백화점	-15834
▁범행과	-15835
▁변화를	-15836
▁보험금	-15837
▁부렸다	-15838
▁불편한	-15839
▁비율은	-15840
▁사연을	-15841
▁생명은	-15842
▁소속된	-15843
▁소유한	-15844
▁수강생	-15845
▁수련원	-15846
▁숨지기	-15847
▁숨지자	-15848
▁시켰다	-15849
▁신분이	-15850
▁알려줄	-15851
▁없다면	-15852
▁예비적	-15853
▁올림픽	-15854
▁외제차	-15855
▁위치에	-15856
▁유학생	-15857
▁이번엔	-15858
▁임실군	-15859
▁입증을	-15860
▁장비를	-15861
▁제도적	-15862
▁제보가	-15863
▁제안한	-15864
▁조치는	-15865
▁조희연	-15866
▁졸업생	-15867
▁직후인	-15868
▁집안에	-15869
▁집어던	-15870
▁차규근	-15871
▁청문회	-15872
▁출입을	-15873
▁취약한	-15874
▁치료제	-15875
▁콜센터	-15876
▁크다고	-15877
▁투신해	-15878
▁특별히	-15879
▁팀닥터	-15880
▁포항시	-15881
▁피했다	-15882
▁하나도	-15883
▁항공기	-15884
▁행위도	-15885
▁행인이	-15886
▁호텔에	-15887
▁화물차	-15888
만원에서	-15889
법정에서	-15890
살인미수	-15891
위원장은	-15892
이었으며	-15893
피의자의	-15894
했는데도	-15895
▁가족관계	-15896
▁강서구의	-15897
▁경찰들이	-15898
▁과학기술	-15899
▁국무총리	-15900
▁국제공조	-15901
▁권고했다	-15902
▁꾸짖었다	-15903
▁나섰지만	-15904
▁내놓았다	-15905
▁내사종결	-15906
▁누구보다	-15907
▁다짐하고	-15908
▁대상자의	-15909
▁들어있는	-15910
▁때리기도	-15911
▁마련하기	-15912
▁매장에서	-15913
▁몰랐다고	-15914
▁무겁거나	-15915
▁범죄조직	-15916
▁범행동기	-15917
▁비서관이	-15918
▁사망했을	-15919
▁사법경찰	-15920
▁사용하고	-15921
▁서울시의	-15922
▁선수들을	-15923
▁설치했다	-15924
▁소상공인	-15925
▁수사하기	-15926
▁애틀랜타	-15927
▁어려웠다	-15928
▁엑스터시	-15929
▁여학생을	-15930
▁연관성을	-15931
▁예고했다	-15932
▁예방하기	-15933
▁요구했고	-15934
▁우발적인	-15935
▁움직이지	-15936
▁원인으로	-15937
▁위력으로	-15938
▁음주단속	-15939
▁의뢰하는	-15940
▁이곳에서	-15941
▁이면도로	-15942
▁있었다면	-15943
▁자숙하지	-15944
▁재수사에	-15945
▁적용하지	-15946
▁전달하는	-15947
▁존속상해	-15948
▁준비기일	-15949
▁중국어선	-15950
▁증거들을	-15951
▁청소년의	-15952
▁청원글이	-15953
▁추가했다	-15954
▁출생신고	-15955
▁출석요구	-15956
▁측면에서	-15957
▁카메라로	-15958
▁톨게이트	-15959
▁폭력적인	-15960
▁표명했다	-15961
▁프로야구	-15962
▁피해액은	-15963
▁하겠다는	-15964
▁항소하지	-15965
▁횡령하고	-15966
수석비서관	-15967
피고인에게	-15968
▁거절당하자	-15969
▁경제부시장	-15970
▁계획이라고	-15971
▁공무원들이	-15972
▁금은방에서	-15973
▁누범기간에	-15974
▁미성년자가	-15975
▁불법촬영물	-15976
▁살해하려고	-15977
▁수사하겠다	-15978
▁여자친구와	-15979
▁원칙적으로	-15980
▁의정부지검	-15981
▁자발적으로	-15982
▁조건만남을	-15983
▁조금이라도	-15984
▁지방경찰청	-15985
▁코오롱티슈	-15986
▁택시기사는	-15987
▁프로그램에	-15988
▁허위공문서	-15989
▁2021.2	-15990
▁기초생활수급	-15991
▁명령해달라고	-15992
▁몰래카메라를	-15993
▁범죄수익금을	-15994
▁부산경찰청에	-15995
▁서울경찰청에	-15996
▁서울서부지검	-15997
▁외국환거래법	-15998
▁익산경찰서는	-15999
▁중환자실에서	-16000
▁커뮤니티에는	-16001
노동조합총연맹	-16002
▁공판준비기일은	-16003
▁인천지방경찰청	-16004
66	-16005
85	-16006
at	-16007
▁긍	-16008
▁닭	-16009
▁빛	-16010
고지	-16011
구성	-16012
국방	-16013
기서	-16014
김영	-16015
냐는	-16016
돈이	-16017
두는	-16018
드릴	-16019
딸을	-16020
뮤직	-16021
방역	-16022
보에	-16023
부실	-16024
소수	-16025
야간	-16026
어느	-16027
여개	-16028
오면	-16029
욕을	-16030
웠을	-16031
유사	-16032
일명	-16033
일자	-16034
점과	-16035
정인	-16036
조위	-16037
줘서	-16038
지침	-16039
채무	-16040
측의	-16041
치에	-16042
파크	-16043
해임	-16044
형은	-16045
형철	-16046
▁가질	-16047
▁개방	-16048
▁견주	-16049
▁고개	-16050
▁고맙	-16051
▁공문	-16052
▁관행	-16053
▁기계	-16054
▁기한	-16055
▁김근	-16056
▁네팔	-16057
▁달에	-16058
▁대령	-16059
▁도마	-16060
▁돌봐	-16061
▁드릴	-16062
▁듣는	-16063
▁마찰	-16064
▁마취	-16065
▁맞서	-16066
▁맺고	-16067
▁먹게	-16068
▁범칙	-16069
▁비틀	-16070
▁사내	-16071
▁사육	-16072
▁새끼	-16073
▁샤워	-16074
▁석유	-16075
▁손이	-16076
▁수능	-16077
▁수임	-16078
▁스피	-16079
▁슬픔	-16080
▁승려	-16081
▁실수	-16082
▁심장	-16083
▁싸우	-16084
▁어리	-16085
▁어플	-16086
▁엄단	-16087
▁왔고	-16088
▁요건	-16089
▁울음	-16090
▁원미	-16091
▁유령	-16092
▁이지	-16093
▁일체	-16094
▁증오	-16095
▁진심	-16096
▁질주	-16097
▁짓밟	-16098
▁청렴	-16099
▁청취	-16100
▁출장	-16101
▁충전	-16102
▁충주	-16103
▁치는	-16104
▁캡쳐	-16105
▁커질	-16106
▁텐데	-16107
▁퇴출	-16108
▁프레	-16109
▁학창	-16110
▁확립	-16111
▁흉악	-16112
거래를	-16113
겼다는	-16114
근무를	-16115
내에서	-16116
도날드	-16117
되는데	-16118
라디오	-16119
리다가	-16120
만명을	-16121
명여고	-16122
문제로	-16123
박스를	-16124
박원순	-16125
번방과	-16126
분만에	-16127
서울시	-16128
스러워	-16129
여명에	-16130
왔다는	-16131
인들의	-16132
제도를	-16133
졌으나	-16134
조씨는	-16135
청구를	-16136
출입국	-16137
타이어	-16138
통화를	-16139
해경은	-16140
화했다	-16141
...'	-16142
25-2	-16143
▁▲10	-16144
▁▲12	-16145
▁▲20	-16146
▁가격에	-16147
▁가로등	-16148
▁가볍게	-16149
▁가슴과	-16150
▁가져가	-16151
▁가처분	-16152
▁강화된	-16153
▁게재한	-16154
▁계획이	-16155
▁고민이	-16156
▁골절상	-16157
▁구조를	-16158
▁구하라	-16159
▁김태균	-16160
▁김태호	-16161
▁김해시	-16162
▁날짜를	-16163
▁남양주	-16164
▁논란과	-16165
▁대낮에	-16166
▁대처할	-16167
▁도피를	-16168
▁둘러싸	-16169
▁막말을	-16170
▁만나러	-16171
▁말이다	-16172
▁맞는지	-16173
▁모임을	-16174
▁물음에	-16175
▁미흡한	-16176
▁민간인	-16177
▁박상하	-16178
▁받기로	-16179
▁발표를	-16180
▁배준환	-16181
▁범인은	-16182
▁법리적	-16183
▁법안을	-16184
▁병합해	-16185
▁부친은	-16186
▁분석에	-16187
▁불만이	-16188
▁불법조	-16189
▁빌라에	-16190
▁사고에	-16191
▁살인이	-16192
▁살피고	-16193
▁상사도	-16194
▁생각할	-16195
▁석방된	-16196
▁성명불	-16197
▁세관은	-16198
▁소지자	-16199
▁수거한	-16200
▁숨졌고	-16201
▁시신에	-16202
▁심려를	-16203
▁양씨는	-16204
▁업주와	-16205
▁이뤄지	-16206
▁이사회	-16207
▁이외에	-16208
▁이용할	-16209
▁이웃집	-16210
▁이탈한	-16211
▁일당의	-16212
▁일정이	-16213
▁임신과	-16214
▁자기가	-16215
▁잔인한	-16216
▁잠들어	-16217
▁잠에서	-16218
▁적발해	-16219
▁전체에	-16220
▁점검을	-16221
▁정하는	-16222
▁제도가	-16223
▁주호영	-16224
▁줄어든	-16225
▁지원할	-16226
▁직장인	-16227
▁진술해	-16228
▁차주가	-16229
▁참가자	-16230
▁처벌과	-16231
▁청구에	-16232
▁청사를	-16233
▁체결한	-16234
▁총경의	-16235
▁치밀한	-16236
▁커다란	-16237
▁통합당	-16238
▁하반기	-16239
▁학대는	-16240
▁한계를	-16241
▁한동안	-16242
▁합수본	-16243
▁항공사	-16244
▁핵심인	-16245
▁행사에	-16246
▁화면을	-16247
▁확정돼	-16248
▁후보의	-16249
경찰서가	-16250
재판부가	-16251
직권남용	-16252
특정경제	-16253
해수욕장	-16254
현지시간	-16255
▁9000	-16256
▁가상자산	-16257
▁거부하는	-16258
▁고민으로	-16259
▁공무집행	-16260
▁과다출혈	-16261
▁관계부처	-16262
▁구급대원	-16263
▁국과수의	-16264
▁국민에게	-16265
▁극단선택	-16266
▁금지하는	-16267
▁남양주시	-16268
▁논란으로	-16269
▁달아났던	-16270
▁대량으로	-16271
▁동갑내기	-16272
▁문화체육	-16273
▁민주당은	-16274
▁밀수입한	-16275
▁밝히겠다	-16276
▁법리오해	-16277
▁부산시청	-16278
▁부정채용	-16279
▁분노했다	-16280
▁상당하다	-16281
▁생각으로	-16282
▁선거캠프	-16283
▁선고한다	-16284
▁술자리에	-16285
▁승용차로	-16286
▁시간대에	-16287
▁시달리고	-16288
▁시작했고	-16289
▁쓰러졌다	-16290
▁아이들의	-16291
▁않았다면	-16292
▁알선하고	-16293
▁알코올농	-16294
▁외교부는	-16295
▁원칙으로	-16296
▁일부개정	-16297
▁일으키는	-16298
▁일축했다	-16299
▁입건하지	-16300
▁있으므로	-16301
▁전반적인	-16302
▁정보통신	-16303
▁제기된다	-16304
▁주거지와	-16305
▁직후부터	-16306
▁집회에서	-16307
▁청소년이	-16308
▁총괄하는	-16309
▁최신종의	-16310
▁추적했다	-16311
▁추진하고	-16312
▁추징보전	-16313
▁탑승했다	-16314
▁판단한다	-16315
▁하나은행	-16316
▁항소심이	-16317
▁항의하는	-16318
▁행정관은	-16319
▁허벅지를	-16320
공동취재단	-16321
공소사실을	-16322
등이용촬영	-16323
청소년이용	-16324
▁공소사실이	-16325
▁공판에서는	-16326
▁기자들에게	-16327
▁달아났다가	-16328
▁대응하겠다	-16329
▁메신저피싱	-16330
▁부인하다가	-16331
▁부장검사가	-16332
▁살인혐의로	-16333
▁선거운동을	-16334
▁술자리에서	-16335
▁유류품에서	-16336
▁재난지원금	-16337
▁직접적으로	-16338
▁피의자들이	-16339
▁필리핀에서	-16340
▁헌법재판소	-16341
▁강동경찰서는	-16342
▁산부인과에서	-16343
▁신한금융투자	-16344
▁여자화장실에	-16345
▁예정이었으나	-16346
▁주민등록번호	-16347
▁2020.11	-16348
AT	-16349
IG	-16350
~1	-16351
▁갱	-16352
▁뭘	-16353
▁숭	-16354
▁푸	-16355
가방	-16356
걸이	-16357
결혼	-16358
경북	-16359
계산	-16360
공모	-16361
공범	-16362
광역	-16363
그때	-16364
극창	-16365
금품	-16366
급인	-16367
길래	-16368
나이	-16369
느라	-16370
다이	-16371
도체	-16372
르던	-16373
르자	-16374
명백	-16375
모직	-16376
물건	-16377
미한	-16378
발로	-16379
버린	-16380
병과	-16381
불을	-16382
비록	-16383
사설	-16384
상대	-16385
수교	-16386
수대	-16387
식당	-16388
안보	-16389
여대	-16390
오일	-16391
이인	-16392
일인	-16393
지속	-16394
진탕	-16395
창훈	-16396
청의	-16397
추정	-16398
춤을	-16399
태근	-16400
터를	-16401
팀에	-16402
화에	-16403
환을	-16404
(14	-16405
.3/	-16406
93,	-16407
CPR	-16408
KBS	-16409
MBC	-16410
▁68	-16411
▁87	-16412
▁▲1	-16413
▁가시	-16414
▁간다	-16415
▁갖게	-16416
▁고창	-16417
▁공부	-16418
▁공여	-16419
▁과제	-16420
▁군부	-16421
▁그걸	-16422
▁깨우	-16423
▁껴안	-16424
▁남의	-16425
▁내야	-16426
▁너희	-16427
▁넉넉	-16428
▁논설	-16429
▁놓아	-16430
▁도살	-16431
▁로또	-16432
▁맡기	-16433
▁모델	-16434
▁모를	-16435
▁무산	-16436
▁무역	-16437
▁미용	-16438
▁박진	-16439
▁반출	-16440
▁별장	-16441
▁부녀	-16442
▁빨간	-16443
▁상자	-16444
▁생전	-16445
▁선장	-16446
▁손도	-16447
▁수주	-16448
▁스토	-16449
▁시료	-16450
▁심판	-16451
▁쌓아	-16452
▁어긴	-16453
▁억압	-16454
▁역삼	-16455
▁연다	-16456
▁외사	-16457
▁의구	-16458
▁이래	-16459
▁일용	-16460
▁잠들	-16461
▁잡을	-16462
▁잡지	-16463
▁장영	-16464
▁적폐	-16465
▁전쟁	-16466
▁전처	-16467
▁접종	-16468
▁정산	-16469
▁정착	-16470
▁조른	-16471
▁종중	-16472
▁주체	-16473
▁중지	-16474
▁쪽에	-16475
▁착오	-16476
▁청남	-16477
▁총영	-16478
▁태어	-16479
▁투척	-16480
▁특경	-16481
▁표절	-16482
▁한창	-16483
▁했기	-16484
▁헌병	-16485
▁형평	-16486
▁환영	-16487
▁회신	-16488
▁효율	-16489
감사를	-16490
결정을	-16491
경위의	-16492
관리를	-16493
근마켓	-16494
까지만	-16495
단체가	-16496
되지만	-16497
들이다	-16498
렀다는	-16499
마저도	-16500
모씨와	-16501
박스에	-16502
브리핑	-16503
사기를	-16504
사실이	-16505
시험을	-16506
업자가	-16507
우리가	-16508
차사건	-16509
탐지기	-16510
파트너	-16511
프라인	-16512
해주길	-16513
회사에	-16514
(20·	-16515
(39·	-16516
(52·	-16517
(57·	-16518
(71)	-16519
.20/	-16520
▁USB	-16521
▁가로챘	-16522
▁가입자	-16523
▁가입해	-16524
▁갈수록	-16525
▁갑질을	-16526
▁갔다가	-16527
▁건설사	-16528
▁검토가	-16529
▁고위직	-16530
▁고통은	-16531
▁곳간이	-16532
▁공격한	-16533
▁관리비	-16534
▁국공립	-16535
▁국장은	-16536
▁군부대	-16537
▁권기범	-16538
▁그러지	-16539
▁근무할	-16540
▁금지된	-16541
▁김경수	-16542
▁끝나면	-16543
▁끝으로	-16544
▁나서야	-16545
▁노무현	-16546
▁누르고	-16547
▁다녀온	-16548
▁답하지	-16549
▁데려간	-16550
▁동작구	-16551
▁되돌아	-16552
▁따라가	-16553
▁마셨다	-16554
▁마음의	-16555
▁마주친	-16556
▁만나는	-16557
▁모자와	-16558
▁모친이	-16559
▁미치지	-16560
▁바지를	-16561
▁방송된	-16562
▁방청객	-16563
▁번째다	-16564
▁범위가	-16565
▁부실을	-16566
▁불렀다	-16567
▁사과문	-16568
▁사라져	-16569
▁사망과	-16570
▁사유에	-16571
▁사퇴한	-16572
▁살해를	-16573
▁상태의	-16574
▁선거에	-16575
▁소변을	-16576
▁속도가	-16577
▁손씨가	-16578
▁수사중	-16579
▁수수의	-16580
▁승객의	-16581
▁시장과	-16582
▁시점이	-16583
▁실장은	-16584
▁아이언	-16585
▁악의적	-16586
▁않았기	-16587
▁알리는	-16588
▁업체와	-16589
▁없는지	-16590
▁없으나	-16591
▁없음을	-16592
▁에이미	-16593
▁여권을	-16594
▁여인숙	-16595
▁예견할	-16596
▁유감을	-16597
▁윤성여	-16598
▁의원도	-16599
▁의원실	-16600
▁이의를	-16601
▁이제는	-16602
▁인생을	-16603
▁일가가	-16604
▁일대에	-16605
▁자살을	-16606
▁장간막	-16607
▁재범을	-16608
▁전망이	-16609
▁전방위	-16610
▁전송한	-16611
▁접촉해	-16612
▁조작된	-16613
▁죄책에	-16614
▁주거가	-16615
▁죽이고	-16616
▁줬다는	-16617
▁증거도	-16618
▁지역구	-16619
▁진정을	-16620
▁쪽에서	-16621
▁창고에	-16622
▁초과해	-16623
▁최소화	-16624
▁최씨에	-16625
▁친모와	-16626
▁커피숍	-16627
▁컨설팅	-16628
▁키우는	-16629
▁특성을	-16630
▁표현한	-16631
▁핑계로	-16632
▁한다면	-16633
▁합성한	-16634
▁항의를	-16635
▁혈흔이	-16636
▁협박과	-16637
▁화장품	-16638
▁확보된	-16639
▁회고록	-16640
▁훈련을	-16641
▁훔쳤다	-16642
▁휩싸인	-16643
▁흥덕구	-16644
가능성이	-16645
공동상해	-16646
교육지원	-16647
구치소에	-16648
방송통신	-16649
버리겠다	-16650
변호사를	-16651
보고서를	-16652
이춘재가	-16653
주택조합	-16654
지금까지	-16655
피고인과	-16656
▁1800	-16657
▁강요하고	-16658
▁검토하는	-16659
▁게재됐다	-16660
▁계속되고	-16661
▁구속송치	-16662
▁나오면서	-16663
▁나왔다고	-16664
▁내렸다고	-16665
▁달아나던	-16666
▁동대문구	-16667
▁뒤따라가	-16668
▁떨어지는	-16669
▁마무리할	-16670
▁마음먹고	-16671
▁무시하는	-16672
▁배제하지	-16673
▁법치주의	-16674
▁변호사도	-16675
▁보고서에	-16676
▁부딪혔다	-16677
▁부부싸움	-16678
▁부사장의	-16679
▁부탁했다	-16680
▁불분명한	-16681
▁사과하고	-16682
▁사망하는	-16683
▁사용되는	-16684
▁상황이라	-16685
▁선고하자	-16686
▁성범죄가	-16687
▁수색하고	-16688
▁신고하는	-16689
▁신분증을	-16690
▁실제로는	-16691
▁실종됐다	-16692
▁아시아계	-16693
▁아파트의	-16694
▁영상으로	-16695
▁위원회는	-16696
▁유사수신	-16697
▁의미한다	-16698
▁의사결정	-16699
▁이전부터	-16700
▁입수하고	-16701
▁자녀들이	-16702
▁전국민주	-16703
▁전달받은	-16704
▁전파진흥	-16705
▁정식으로	-16706
▁제공하지	-16707
▁제출하는	-16708
▁주인에게	-16709
▁지구대에	-16710
▁직장동료	-16711
▁진행하던	-16712
▁청주상당	-16713
▁체포영장	-16714
▁충돌했다	-16715
▁취재진이	-16716
▁탄원하는	-16717
▁탈락자들	-16718
▁투자하면	-16719
▁판결문에	-16720
▁판단하기	-16721
▁폭행치사	-16722
▁하나하나	-16723
▁한국으로	-16724
▁했음에도	-16725
▁행사하는	-16726
▁환경미화	-16727
▁휩싸였다	-16728
화장실에서	-16729
▁개구리소년	-16730
▁객관적으로	-16731
▁거래사이트	-16732
▁공직자윤리	-16733
▁광주교도소	-16734
▁구속영장은	-16735
▁국토교통부	-16736
▁도피생활을	-16737
▁범죄사실을	-16738
▁보강수사를	-16739
▁보호관찰과	-16740
▁복지시설에	-16741
▁불법적으로	-16742
▁선고공판을	-16743
▁선고기일을	-16744
▁수사본부는	-16745
▁언급하면서	-16746
▁옵티머스에	-16747
▁위치추적을	-16748
▁이례적으로	-16749
▁인정했으나	-16750
▁정신감정을	-16751
▁정신적으로	-16752
▁조사에서는	-16753
▁특별감찰반	-16754
▁판결받았다	-16755
▁한국타이어	-16756
▁해당한다는	-16757
▁향정신성의	-16758
▁허위신고를	-16759
▁휴대폰으로	-16760
범죄수사대에	-16761
▁구미경찰서는	-16762
▁마약류관리법	-16763
▁법무부장관이	-16764
▁수면유도제를	-16765
▁출입국관리법	-16766
▁코오롱티슈진	-16767
▁라임자산운용의	-16768
▁불구속기소했다	-16769
범죄가중처벌법상	-16770
▁국민권익위원회에	-16771
▁식품의약품안전처	-16772
▁대한아동학대방지협회	-16773
▁전국민주노동조합총연맹	-16774
청소년의성보호에관한법률	-16775
91	-16776
EO	-16777
▁눕	-16778
▁루	-16779
▁빵	-16780
▁튀	-16781
경고	-16782
국립	-16783
급히	-16784
기야	-16785
김씨	-16786
답을	-16787
도구	-16788
동원	-16789
라기	-16790
레인	-16791
로만	-16792
말이	-16793
면담	-16794
빠른	-16795
산면	-16796
션을	-16797
식과	-16798
어가	-16799
월로	-16800
위치	-16801
있지	-16802
죄와	-16803
죽을	-16804
증언	-16805
지바	-16806
지성	-16807
최종	-16808
테러	-16809
톤급	-16810
편에	-16811
하셨	-16812
학동	-16813
학을	-16814
혹시	-16815
회관	-16816
희철	-16817
(18	-16818
.4/	-16819
aki	-16820
▁“8	-16821
▁◇“	-16822
▁가루	-16823
▁간병	-16824
▁간절	-16825
▁강구	-16826
▁갚아	-16827
▁갚을	-16828
▁거라	-16829
▁경매	-16830
▁경악	-16831
▁국군	-16832
▁그린	-16833
▁금정	-16834
▁기습	-16835
▁김준	-16836
▁넣는	-16837
▁대게	-16838
▁독극	-16839
▁레저	-16840
▁먹는	-16841
▁명목	-16842
▁무속	-16843
▁묵살	-16844
▁문책	-16845
▁미군	-16846
▁미비	-16847
▁밖의	-16848
▁받다	-16849
▁배정	-16850
▁변기	-16851
▁보일	-16852
▁보전	-16853
▁복원	-16854
▁사면	-16855
▁사위	-16856
▁석씨	-16857
▁손주	-16858
▁송부	-16859
▁술과	-16860
▁식구	-16861
▁아픈	-16862
▁안면	-16863
▁양궁	-16864
▁양말	-16865
▁억제	-16866
▁얻을	-16867
▁업계	-16868
▁여럿	-16869
▁여지	-16870
▁오열	-16871
▁완산	-16872
▁용변	-16873
▁유영	-16874
▁이승	-16875
▁이헌	-16876
▁자라	-16877
▁잦은	-16878
▁저체	-16879
▁점점	-16880
▁점주	-16881
▁점퍼	-16882
▁정체	-16883
▁정할	-16884
▁조민	-16885
▁조업	-16886
▁조장	-16887
▁조절	-16888
▁주저	-16889
▁중반	-16890
▁지붕	-16891
▁진도	-16892
▁철인	-16893
▁체불	-16894
▁추억	-16895
▁통행	-16896
▁팔과	-16897
▁펼쳐	-16898
▁품은	-16899
▁하늘	-16900
▁학습	-16901
▁한겨	-16902
▁한때	-16903
▁합법	-16904
▁합쳐	-16905
▁해산	-16906
▁현판	-16907
거리는	-16908
공정한	-16909
관들이	-16910
대병원	-16911
대출을	-16912
되어야	-16913
라고도	-16914
밖으로	-16915
배포등	-16916
번방을	-16917
베이트	-16918
살인을	-16919
스럽고	-16920
식사를	-16921
실화탐	-16922
일치로	-16923
전문가	-16924
지역의	-16925
직에서	-16926
트트랙	-16927
하다며	-16928
(48·	-16929
.28/	-16930
.8%)	-16931
▁가져다	-16932
▁강화해	-16933
▁건강을	-16934
▁건전한	-16935
▁공소유	-16936
▁관대한	-16937
▁교제를	-16938
▁구독자	-16939
▁국가가	-16940
▁금액의	-16941
▁금품과	-16942
▁기사의	-16943
▁기자를	-16944
▁김기현	-16945
▁남녀가	-16946
▁내역이	-16947
▁넘어진	-16948
▁넣었다	-16949
▁누나의	-16950
▁다리에	-16951
▁다음은	-16952
▁단국대	-16953
▁단서가	-16954
▁대신해	-16955
▁도피한	-16956
▁똑같이	-16957
▁레미콘	-16958
▁마땅한	-16959
▁마약에	-16960
▁맥라렌	-16961
▁먹이고	-16962
▁모터보	-16963
▁밀수입	-16964
▁반의사	-16965
▁밝혀져	-16966
▁벽돌로	-16967
▁부정기	-16968
▁붙였다	-16969
▁비닐봉	-16970
▁빙자해	-16971
▁사유는	-16972
▁사형이	-16973
▁살펴보	-16974
▁소환돼	-16975
▁수석은	-16976
▁시흥시	-16977
▁심각해	-16978
▁싶다는	-16979
▁않다가	-16980
▁암매장	-16981
▁약속을	-16982
▁없느냐	-16983
▁엎드린	-16984
▁여배우	-16985
▁연결된	-16986
▁연달아	-16987
▁영업이	-16988
▁오디션	-16989
▁외쳤다	-16990
▁응급환	-16991
▁의전원	-16992
▁이미지	-16993
▁이었다	-16994
▁인력이	-16995
▁일관된	-16996
▁일당을	-16997
▁일체의	-16998
▁입장료	-16999
▁재물을	-17000
▁전국의	-17001
▁전제로	-17002
▁제한도	-17003
▁조치된	-17004
▁증세가	-17005
▁증언한	-17006
▁증인이	-17007
▁지금은	-17008
▁직권을	-17009
▁차주는	-17010
▁최우선	-17011
▁충격에	-17012
▁충돌한	-17013
▁치료비	-17014
▁치열한	-17015
▁친모의	-17016
▁친오빠	-17017
▁코카인	-17018
▁탕진한	-17019
▁통장을	-17020
▁투입된	-17021
▁트럭을	-17022
▁특정할	-17023
▁판례를	-17024
▁피우고	-17025
▁피해에	-17026
▁행방이	-17027
▁확산에	-17028
▁활동이	-17029
▁황운하	-17030
가해자가	-17031
됐음에도	-17032
명이었다	-17033
범행으로	-17034
사로부터	-17035
이용촉진	-17036
정보통신	-17037
주겠다며	-17038
총연합회	-17039
)2021	-17040
▁kaki	-17041
▁가족들을	-17042
▁강압수사	-17043
▁강화한다	-17044
▁거주지를	-17045
▁결정하는	-17046
▁경각심을	-17047
▁경찰청과	-17048
▁고려하지	-17049
▁공개하며	-17050
▁공공수사	-17051
▁공익근무	-17052
▁관계기관	-17053
▁관악구의	-17054
▁국과수는	-17055
▁권익위는	-17056
▁규명하기	-17057
▁기각한다	-17058
▁기소하고	-17059
▁내연관계	-17060
▁대전지검	-17061
▁대통령령	-17062
▁들어가기	-17063
▁떨어뜨려	-17064
▁면허정지	-17065
▁목소리로	-17066
▁못한다는	-17067
▁무겁다며	-17068
▁무엇인지	-17069
▁밀반입한	-17070
▁바뀌었다	-17071
▁발생하자	-17072
▁발표하고	-17073
▁방문했다	-17074
▁방치하고	-17075
▁방해하고	-17076
▁방해하는	-17077
▁베트남인	-17078
▁보내기도	-17079
▁보석으로	-17080
▁보조금을	-17081
▁보호조치	-17082
▁부정하게	-17083
▁사실조회	-17084
▁성범죄는	-17085
▁성범죄의	-17086
▁시장에게	-17087
▁신고하자	-17088
▁신병처리	-17089
▁실종사건	-17090
▁심신상실	-17091
▁아이들은	-17092
▁안산단원	-17093
▁안타깝다	-17094
▁않는다면	-17095
▁연인관계	-17096
▁운영자가	-17097
▁운전자에	-17098
▁위원장이	-17099
▁유튜브를	-17100
▁의료진은	-17101
▁의붓아버	-17102
▁이어지자	-17103
▁인터폴에	-17104
▁잇따르고	-17105
▁저지르지	-17106
▁저축은행	-17107
▁적용되는	-17108
▁전문성을	-17109
▁전자금융	-17110
▁접근했다	-17111
▁정부서울	-17112
▁정신적인	-17113
▁정인양의	-17114
▁중소기업	-17115
▁중하다고	-17116
▁진단서를	-17117
▁천안지원	-17118
▁추적하는	-17119
▁취소했다	-17120
▁판결문을	-17121
▁평소에도	-17122
▁학대했다	-17123
▁학생에게	-17124
▁항거불능	-17125
▁항의하자	-17126
▁협조하지	-17127
▁활동하며	-17128
▁회계책임	-17129
▁훼손했다	-17130
도로교통법	-17131
부산경찰청	-17132
외국인정책	-17133
청탁금지법	-17134
▁◇2020	-17135
▁가정집에서	-17136
▁결정했다고	-17137
▁경찰청에서	-17138
▁고려해달라	-17139
▁국민청원이	-17140
▁긴급체포한	-17141
▁대통령에게	-17142
▁받았음에도	-17143
▁발생했다고	-17144
▁발생했다는	-17145
▁방침이라고	-17146
▁살해했다는	-17147
▁소행이라고	-17148
▁수사심의위	-17149
▁수준이었다	-17150
▁아동학대로	-17151
▁안타까움을	-17152
▁요청했으나	-17153
▁운전하다가	-17154
▁웰스씨앤티	-17155
▁의붓아들이	-17156
▁의식불명에	-17157
▁의심된다는	-17158
▁전문가들의	-17159
▁주도적으로	-17160
▁체포영장이	-17161
▁투표용지를	-17162
▁피해회복이	-17163
▁학부모들은	-17164
▁2019.5	-17165
▁광주지방법원	-17166
▁광진경찰서는	-17167
▁동아일보와의	-17168
▁문화체육관광	-17169
▁범죄단체가입	-17170
▁심의위원회를	-17171
▁인스타그램에	-17172
▁진상조사단은	-17173
▁공익인권법센터	-17174
▁청주교도소에서	-17175
▁과거사진상조사단	-17176
처벌에관한법률위반	-17177
▁범죄수익은닉규제법	-17178
’)	-17179
▁덩	-17180
▁딜	-17181
▁찰	-17182
강훈	-17183
개는	-17184
고한	-17185
공간	-17186
궁화	-17187
근로	-17188
기며	-17189
김진	-17190
남성	-17191
대변	-17192
대위	-17193
레저	-17194
목격	-17195
목포	-17196
무게	-17197
물인	-17198
미향	-17199
배가	-17200
배구	-17201
보통	-17202
불명	-17203
불벌	-17204
브를	-17205
선고	-17206
수다	-17207
스의	-17208
신체	-17209
영외	-17210
유인	-17211
이동	-17212
일단	-17213
일으	-17214
일째	-17215
임대	-17216
있게	-17217
있을	-17218
재심	-17219
저도	-17220
저의	-17221
정차	-17222
조종	-17223
줬고	-17224
지능	-17225
지부	-17226
직장	-17227
질긴	-17228
차림	-17229
턴을	-17230
트는	-17231
트린	-17232
파악	-17233
호텔	-17234
.14	-17235
9),	-17236
▁82	-17237
▁건이	-17238
▁겪을	-17239
▁견디	-17240
▁경감	-17241
▁고씨	-17242
▁권총	-17243
▁급급	-17244
▁기말	-17245
▁기상	-17246
▁내면	-17247
▁눌려	-17248
▁다를	-17249
▁달이	-17250
▁대덕	-17251
▁동체	-17252
▁동포	-17253
▁돼서	-17254
▁딸에	-17255
▁떼어	-17256
▁만장	-17257
▁말리	-17258
▁매크	-17259
▁멀리	-17260
▁면직	-17261
▁물려	-17262
▁민변	-17263
▁방배	-17264
▁버티	-17265
▁번갈	-17266
▁벌이	-17267
▁보게	-17268
▁복잡	-17269
▁빼내	-17270
▁사옥	-17271
▁사재	-17272
▁소란	-17273
▁손동	-17274
▁순위	-17275
▁실체	-17276
▁심경	-17277
▁쏘카	-17278
▁아랫	-17279
▁아파	-17280
▁안방	-17281
▁않냐	-17282
▁알림	-17283
▁앓아	-17284
▁어른	-17285
▁억대	-17286
▁없지	-17287
▁영동	-17288
▁예능	-17289
▁우측	-17290
▁원과	-17291
▁월급	-17292
▁유입	-17293
▁이게	-17294
▁이장	-17295
▁인맥	-17296
▁일찍	-17297
▁입대	-17298
▁재활	-17299
▁저런	-17300
▁정권	-17301
▁좌회	-17302
▁준다	-17303
▁중도	-17304
▁지어	-17305
▁찍혀	-17306
▁최재	-17307
▁타박	-17308
▁토막	-17309
▁포승	-17310
▁포천	-17311
▁피부	-17312
▁피워	-17313
▁하러	-17314
▁한보	-17315
▁한화	-17316
▁해남	-17317
▁효과	-17318
갔다고	-17319
경찰대	-17320
교사를	-17321
국회의	-17322
남동의	-17323
냈다고	-17324
년만에	-17325
다크웹	-17326
단계로	-17327
더라면	-17328
데이터	-17329
살짜리	-17330
선에서	-17331
업체는	-17332
위원을	-17333
전화를	-17334
졌는지	-17335
특가법	-17336
프트럭	-17337
현장에	-17338
...“	-17339
.29/	-17340
.4%)	-17341
shin	-17342
▁2.5	-17343
▁LSD	-17344
▁min	-17345
▁가격이	-17346
▁가정에	-17347
▁가출한	-17348
▁감독이	-17349
▁갓길에	-17350
▁강씨를	-17351
▁거라고	-17352
▁거쳐야	-17353
▁것이지	-17354
▁겨냥한	-17355
▁공간에	-17356
▁과장은	-17357
▁금전을	-17358
▁급기야	-17359
▁기관의	-17360
▁기일은	-17361
▁기존의	-17362
▁길에서	-17363
▁김소영	-17364
▁꼼꼼히	-17365
▁끊이지	-17366
▁내놓은	-17367
▁내놓지	-17368
▁내면서	-17369
▁뇌진탕	-17370
▁다치지	-17371
▁담당자	-17372
▁대응과	-17373
▁도용해	-17374
▁도주의	-17375
▁뒤였다	-17376
▁등록된	-17377
▁마당에	-17378
▁매수한	-17379
▁명에게	-17380
▁모녀가	-17381
▁모두를	-17382
▁모으고	-17383
▁미국에	-17384
▁미국의	-17385
▁믿는다	-17386
▁발부한	-17387
▁범행인	-17388
▁보고도	-17389
▁보냈고	-17390
▁보복을	-17391
▁분노가	-17392
▁분당구	-17393
▁분통을	-17394
▁비상장	-17395
▁사적인	-17396
▁살아온	-17397
▁상품권	-17398
▁생명과	-17399
▁선거법	-17400
▁선고의	-17401
▁성비위	-17402
▁세관에	-17403
▁소공연	-17404
▁소집을	-17405
▁수령한	-17406
▁수십억	-17407
▁승리의	-17408
▁승선원	-17409
▁시계를	-17410
▁시기는	-17411
▁시기를	-17412
▁아동에	-17413
▁아이스	-17414
▁안희정	-17415
▁앞에는	-17416
▁양에게	-17417
▁어디에	-17418
▁엄격히	-17419
▁업주를	-17420
▁연구실	-17421
▁영향이	-17422
▁외상은	-17423
▁용변을	-17424
▁위법한	-17425
▁위원은	-17426
▁유서가	-17427
▁유씨를	-17428
▁의견서	-17429
▁이만희	-17430
▁이불을	-17431
▁이상은	-17432
▁인물의	-17433
▁인사가	-17434
▁인원이	-17435
▁일련의	-17436
▁일방적	-17437
▁일용직	-17438
▁임금을	-17439
▁입장은	-17440
▁재항고	-17441
▁쟁점은	-17442
▁전에는	-17443
▁정당방	-17444
▁제기할	-17445
▁제도다	-17446
▁제한속	-17447
▁조르는	-17448
▁조속히	-17449
▁존재를	-17450
▁주차한	-17451
▁중감금	-17452
▁중구에	-17453
▁지내고	-17454
▁지장은	-17455
▁집어넣	-17456
▁찍혔다	-17457
▁참여해	-17458
▁채취한	-17459
▁챙기는	-17460
▁출국을	-17461
▁충격이	-17462
▁췌장이	-17463
▁취재에	-17464
▁취지에	-17465
▁판사의	-17466
▁평택시	-17467
▁표했다	-17468
▁하려는	-17469
▁학생들	-17470
▁합니다	-17471
▁햄버거	-17472
▁형기를	-17473
▁홈페이	-17474
▁확대해	-17475
▁확인될	-17476
시께부터	-17477
했더라도	-17478
▁1999	-17479
▁3500	-17480
▁결정한다	-17481
▁경찰청이	-17482
▁계단에서	-17483
▁계약서를	-17484
▁계획적인	-17485
▁공익요원	-17486
▁관여하지	-17487
▁구조됐다	-17488
▁군사법원	-17489
▁귀가하는	-17490
▁기억하지	-17491
▁기획조정	-17492
▁노원구의	-17493
▁다운로드	-17494
▁대상자가	-17495
▁대화내용	-17496
▁덤프트럭	-17497
▁등장했다	-17498
▁라이터로	-17499
▁라이터를	-17500
▁매입했다	-17501
▁메신저로	-17502
▁모두에게	-17503
▁물론이고	-17504
▁변호사로	-17505
▁변호인과	-17506
▁보호하기	-17507
▁봉사활동	-17508
▁부분에서	-17509
▁부탁한다	-17510
▁부합하는	-17511
▁블로그에	-17512
▁사랑하는	-17513
▁사실무근	-17514
▁살인방조	-17515
▁상황으로	-17516
▁생활하던	-17517
▁선거사무	-17518
▁선고유예	-17519
▁선임행정	-17520
▁성공했다	-17521
▁성접대를	-17522
▁송치하고	-17523
▁수개월간	-17524
▁수사관은	-17525
▁시세보다	-17526
▁시점에서	-17527
▁아동에게	-17528
▁아이디를	-17529
▁안타까워	-17530
▁알려졌던	-17531
▁외국인이	-17532
▁외부위원	-17533
▁운영했다	-17534
▁원정도박	-17535
▁유리하게	-17536
▁이유였다	-17537
▁이해하기	-17538
▁일삼았다	-17539
▁자원봉사	-17540
▁작성했다	-17541
▁장씨에게	-17542
▁적절하지	-17543
▁전원합의	-17544
▁전지훈련	-17545
▁전형적인	-17546
▁제주지검	-17547
▁조두순을	-17548
▁조사하기	-17549
▁조직문화	-17550
▁조천읍의	-17551
▁죄책감을	-17552
▁주거지로	-17553
▁지구대로	-17554
▁진술하는	-17555
▁청원글을	-17556
▁청주지검	-17557
▁체포하고	-17558
▁트위터에	-17559
▁특정강력	-17560
▁편의점을	-17561
▁평가했다	-17562
▁폭행했고	-17563
▁학대치사	-17564
▁학부모가	-17565
▁한강공원	-17566
▁합의하지	-17567
▁혐의없음	-17568
▁활동하는	-17569
▁회원들은	-17570
▁휘두르는	-17571
관리위원회	-17572
▁1393,	-17573
▁강제추행과	-17574
▁검찰로부터	-17575
▁공익제보자	-17576
▁무자비하게	-17577
▁반부패강력	-17578
▁보호관찰소	-17579
▁보호조치를	-17580
▁본회의에서	-17581
▁부당하다는	-17582
▁부당하다며	-17583
▁부인해왔다	-17584
▁부정행위를	-17585
▁불법체류자	-17586
▁빠져나갔다	-17587
▁사죄드린다	-17588
▁살인사건은	-17589
▁성폭행당한	-17590
▁수사상황을	-17591
▁심문기일을	-17592
▁어려워지자	-17593
▁여자아이를	-17594
▁요구하면서	-17595
▁음란물제작	-17596
▁이유만으로	-17597
▁적발했다고	-17598
▁지구대에서	-17599
▁청구했으나	-17600
▁피의자에게	-17601
▁필요하다면	-17602
▁해양수산부	-17603
▁허위진술을	-17604
▁2020.9	-17605
▁광산경찰서는	-17606
▁대구지방법원	-17607
▁대전지방법원	-17608
▁마약류관리에	-17609
▁엘리베이터를	-17610
▁주민센터에서	-17611
▁업무상과실치사	-17612
▁전북지방경찰청	-17613
▁수원법원종합청사	-17614
PG	-17615
us	-17616
▁r	-17617
▁롱	-17618
▁몫	-17619
▁싹	-17620
▁앗	-17621
▁젤	-17622
가명	-17623
가스	-17624
강욱	-17625
객관	-17626
고와	-17627
관절	-17628
구는	-17629
군상	-17630
기계	-17631
끼를	-17632
년전	-17633
당일	-17634
대면	-17635
대부	-17636
둘이	-17637
드려	-17638
리라	-17639
모두	-17640
물과	-17641
미제	-17642
반대	-17643
방안	-17644
방향	-17645
봐라	-17646
봤을	-17647
불로	-17648
블루	-17649
비오	-17650
살이	-17651
삿짐	-17652
세균	-17653
세연	-17654
소지	-17655
속에	-17656
양천	-17657
어준	-17658
역이	-17659
오후	-17660
완전	-17661
용을	-17662
웠고	-17663
율이	-17664
은설	-17665
자나	-17666
잖아	-17667
재성	-17668
적극	-17669
정과	-17670
제에	-17671
중계	-17672
증인	-17673
진실	-17674
질의	-17675
차장	-17676
청산	-17677
쳤을	-17678
출국	-17679
충돌	-17680
털이	-17681
하길	-17682
합을	-17683
현황	-17684
.5/	-17685
ᆞ충남	-17686
▁62	-17687
▁ks	-17688
▁가공	-17689
▁가면	-17690
▁거센	-17691
▁건가	-17692
▁건은	-17693
▁겨울	-17694
▁격상	-17695
▁경산	-17696
▁고백	-17697
▁고성	-17698
▁과수	-17699
▁과오	-17700
▁굳이	-17701
▁금을	-17702
▁금천	-17703
▁급격	-17704
▁꿇고	-17705
▁나름	-17706
▁노후	-17707
▁높여	-17708
▁다중	-17709
▁단서	-17710
▁담뱃	-17711
▁대외	-17712
▁대우	-17713
▁두달	-17714
▁둘이	-17715
▁들며	-17716
▁등원	-17717
▁따뜻	-17718
▁묘연	-17719
▁미근	-17720
▁밑에	-17721
▁박승	-17722
▁밟는	-17723
▁방영	-17724
▁배려	-17725
▁빗썸	-17726
▁생존	-17727
▁석연	-17728
▁송출	-17729
▁쇼크	-17730
▁수갑	-17731
▁수료	-17732
▁숨기	-17733
▁악질	-17734
▁악플	-17735
▁안된	-17736
▁없나	-17737
▁옆구	-17738
▁오리	-17739
▁와룡	-17740
▁용기	-17741
▁우한	-17742
▁운송	-17743
▁움켜	-17744
▁원씩	-17745
▁은퇴	-17746
▁응징	-17747
▁이감	-17748
▁이다	-17749
▁이선	-17750
▁이주	-17751
▁입는	-17752
▁입혀	-17753
▁잠그	-17754
▁장동	-17755
▁저도	-17756
▁전씨	-17757
▁정면	-17758
▁종암	-17759
▁지옥	-17760
▁지출	-17761
▁짐을	-17762
▁짐작	-17763
▁차려	-17764
▁체온	-17765
▁초순	-17766
▁초인	-17767
▁초중	-17768
▁추첨	-17769
▁터져	-17770
▁특이	-17771
▁패딩	-17772
▁하명	-17773
▁하청	-17774
▁해커	-17775
▁혀를	-17776
▁화염	-17777
▁휴일	-17778
과대학	-17779
교육감	-17780
기록부	-17781
더불어	-17782
려다가	-17783
력으로	-17784
린다는	-17785
뮤지엄	-17786
받지도	-17787
배포한	-17788
부터는	-17789
분으로	-17790
사회를	-17791
성이나	-17792
연하게	-17793
오른쪽	-17794
올림픽	-17795
요청을	-17796
윤중천	-17797
의료원	-17798
이들이	-17799
이씨가	-17800
일에서	-17801
장애가	-17802
재판에	-17803
집회를	-17804
처리를	-17805
치거나	-17806
특별법	-17807
하라며	-17808
학교에	-17809
해경에	-17810
해주기	-17811
호에서	-17812
(33·	-17813
(38·	-17814
(40·	-17815
(44·	-17816
(49·	-17817
(55·	-17818
(76)	-17819
.30/	-17820
.7%)	-17821
▁900	-17822
▁가만히	-17823
▁간단한	-17824
▁감독의	-17825
▁거부할	-17826
▁결과로	-17827
▁경영권	-17828
▁계약서	-17829
▁고객이	-17830
▁관리자	-17831
▁구매자	-17832
▁권고를	-17833
▁규정한	-17834
▁기재돼	-17835
▁기프트	-17836
▁김미리	-17837
▁김성태	-17838
▁김진욱	-17839
▁꼽힌다	-17840
▁농약을	-17841
▁다음해	-17842
▁단장은	-17843
▁단톡방	-17844
▁달리는	-17845
▁대진연	-17846
▁대포폰	-17847
▁대학에	-17848
▁동원한	-17849
▁드론을	-17850
▁때렸고	-17851
▁만나지	-17852
▁말했고	-17853
▁망상에	-17854
▁맞고소	-17855
▁매크로	-17856
▁모친은	-17857
▁바람직	-17858
▁박상기	-17859
▁밝혔고	-17860
▁방법은	-17861
▁방치된	-17862
▁법적인	-17863
▁법최면	-17864
▁보관돼	-17865
▁보장을	-17866
▁부끄럽	-17867
▁불렸던	-17868
▁비용이	-17869
▁사기범	-17870
▁사소한	-17871
▁살았다	-17872
▁상관이	-17873
▁상당구	-17874
▁상에서	-17875
▁생활해	-17876
▁서울과	-17877
▁선물을	-17878
▁소문이	-17879
▁소방대	-17880
▁손동환	-17881
▁수법과	-17882
▁수사기	-17883
▁수집해	-17884
▁신문이	-17885
▁실패한	-17886
▁심리한	-17887
▁심의를	-17888
▁안되는	-17889
▁언쟁을	-17890
▁업로드	-17891
▁여론의	-17892
▁영아의	-17893
▁오석준	-17894
▁요청이	-17895
▁운영이	-17896
▁은행에	-17897
▁이혼을	-17898
▁일으킬	-17899
▁일정은	-17900
▁일행을	-17901
▁입금한	-17902
▁자국이	-17903
▁장소가	-17904
▁장소는	-17905
▁재배당	-17906
▁재청구	-17907
▁재판장	-17908
▁저지르	-17909
▁적발한	-17910
▁적어도	-17911
▁절차다	-17912
▁정당화	-17913
▁제주제	-17914
▁제출을	-17915
▁조계종	-17916
▁조비오	-17917
▁주인은	-17918
▁지나면	-17919
▁지방청	-17920
▁지역을	-17921
▁지인은	-17922
▁지침에	-17923
▁진지한	-17924
▁집중할	-17925
▁집회가	-17926
▁착수해	-17927
▁채널에	-17928
▁처분에	-17929
▁처분은	-17930
▁천씨는	-17931
▁천안시	-17932
▁청테이	-17933
▁최선의	-17934
▁태양광	-17935
▁통과한	-17936
▁퇴원한	-17937
▁트렁크	-17938
▁판매할	-17939
▁평범한	-17940
▁포착한	-17941
▁폭로가	-17942
▁하나의	-17943
▁하라고	-17944
▁학생과	-17945
▁해경과	-17946
▁해봐야	-17947
▁허경호	-17948
▁현금과	-17949
▁호감을	-17950
▁환경부	-17951
▁회사는	-17952
▁회식을	-17953
▁휴대용	-17954
▁흐름을	-17955
당했다는	-17956
미스러운	-17957
시스템을	-17958
씨에게서	-17959
업자에게	-17960
키뮤지엄	-17961
협동조합	-17962
.2019	-17963
~2016	-17964
~2017	-17965
▁1400	-17966
▁감안했다	-17967
▁강간치상	-17968
▁거세지자	-17969
▁검출되지	-17970
▁게시물이	-17971
▁결정으로	-17972
▁계획하고	-17973
▁공소기각	-17974
▁교사들이	-17975
▁기소하지	-17976
▁나타나지	-17977
▁남부지법	-17978
▁네티즌은	-17979
▁노력하고	-17980
▁누군가가	-17981
▁누워있는	-17982
▁담임교사	-17983
▁대법원도	-17984
▁대부업체	-17985
▁대소변을	-17986
▁대피하는	-17987
▁돌아왔다	-17988
▁돌입했다	-17989
▁동거녀의	-17990
▁딥페이크	-17991
▁매출채권	-17992
▁메신저를	-17993
▁모른다는	-17994
▁무관하게	-17995
▁반인륜적	-17996
▁배당됐다	-17997
▁배우자가	-17998
▁벌이기도	-17999
▁법인카드	-18000
▁보고하지	-18001
▁부산진구	-18002
▁불과했다	-18003
▁불러일으	-18004
▁불법도박	-18005
▁비방하는	-18006
▁사유서를	-18007
▁살해하는	-18008
▁상태여서	-18009
▁상해죄로	-18010
▁서울북부	-18011
▁손가락을	-18012
▁쇼트트랙	-18013
▁시교육청	-18014
▁시끄럽게	-18015
▁시달리다	-18016
▁시민사회	-18017
▁신호대기	-18018
▁알고싶다	-18019
▁업무에서	-18020
▁외부에서	-18021
▁용인동부	-18022
▁운영자인	-18023
▁울산지검	-18024
▁위원장을	-18025
▁유기했다	-18026
▁유포하는	-18027
▁의사면허	-18028
▁의원실이	-18029
▁의혹까지	-18030
▁이듬해인	-18031
▁이메일을	-18032
▁일으켰다	-18033
▁입증되지	-18034
▁잔인하고	-18035
▁재범방지	-18036
▁전국에서	-18037
▁제일모직	-18038
▁제주동부	-18039
▁조건만남	-18040
▁중이어서	-18041
▁직접수사	-18042
▁치료강의	-18043
▁한보그룹	-18044
▁할머니의	-18045
▁항변했다	-18046
▁혈액형은	-18047
▁형사보상	-18048
▁회원으로	-18049
▁후원금을	-18050
▁후회하고	-18051
대전ᆞ충남	-18052
민주화운동	-18053
성보호법상	-18054
실화탐사대	-18055
자유한국당	-18056
죄송합니다	-18057
▁간호조무사	-18058
▁강제추행을	-18059
▁검경수사권	-18060
▁결과적으로	-18061
▁국가정보원	-18062
▁기숙사에서	-18063
▁돌아다니며	-18064
▁때문이라고	-18065
▁발견됐으며	-18066
▁부사장에게	-18067
▁부족하다고	-18068
▁사회로부터	-18069
▁살인사건과	-18070
▁살인사건의	-18071
▁살해하려다	-18072
▁성폭력범죄	-18073
▁소방당국이	-18074
▁소주병으로	-18075
▁순차적으로	-18076
▁실시간으로	-18077
▁어린이집을	-18078
▁위해서라도	-18079
▁접촉사고를	-18080
▁정신병원에	-18081
▁제출하기도	-18082
▁조사에서도	-18083
▁해당하는지	-18084
▁해양경찰청	-18085
▁행정명령을	-18086
▁확인했지만	-18087
위험운전치사	-18088
▁게스트하우스	-18089
▁권리행사방해	-18090
▁무기징역형을	-18091
▁유사성행위를	-18092
▁미추홀경찰서는	-18093
▁미필적으로나마	-18094
▁부산교도소에서	-18095
▁서울구치소에서	-18096
아동보호전문기관	-18097
화성연쇄살인사건	-18098
▁국민참여재판으로	-18099
▁옵티머스자산운용의	-18100
95	-18101
PJ	-18102
il	-18103
▁깃	-18104
▁봄	-18105
▁색	-18106
▁섬	-18107
▁째	-18108
가장	-18109
간접	-18110
감염	-18111
갑근	-18112
강사	-18113
개소	-18114
곳과	-18115
관제	-18116
구니	-18117
국은	-18118
근거	-18119
금천	-18120
기동	-18121
기만	-18122
꾸로	-18123
나와	-18124
난다	-18125
내셔	-18126
네요	-18127
들여	-18128
량한	-18129
로로	-18130
리그	-18131
막이	-18132
몰카	-18133
몸캠	-18134
박영	-18135
방문	-18136
배상	-18137
버려	-18138
분여	-18139
상훈	-18140
순위	-18141
스쿨	-18142
스킨	-18143
시고	-18144
신화	-18145
유래	-18146
유에	-18147
율은	-18148
의동	-18149
이너	-18150
인출	-18151
인한	-18152
인회	-18153
일치	-18154
임에	-18155
입금	-18156
자루	-18157
전날	-18158
점의	-18159
정리	-18160
죽여	-18161
책이	-18162
천동	-18163
천의	-18164
측에	-18165
칙에	-18166
친족	-18167
택을	-18168
편의	-18169
현행	-18170
(4)	-18171
.0%	-18172
1-2	-18173
▁61	-18174
▁ID	-18175
▁가자	-18176
▁고심	-18177
▁고충	-18178
▁과목	-18179
▁교환	-18180
▁구토	-18181
▁구할	-18182
▁금속	-18183
▁금호	-18184
▁길어	-18185
▁김예	-18186
▁김오	-18187
▁날아	-18188
▁눈물	-18189
▁당정	-18190
▁대담	-18191
▁대동	-18192
▁동두	-18193
▁되레	-18194
▁막대	-18195
▁맡겼	-18196
▁면소	-18197
▁무력	-18198
▁묵비	-18199
▁물적	-18200
▁믿어	-18201
▁밀린	-18202
▁밀친	-18203
▁발신	-18204
▁번에	-18205
▁번의	-18206
▁보류	-18207
▁비자	-18208
▁빈번	-18209
▁뽑아	-18210
▁사선	-18211
▁살게	-18212
▁삼은	-18213
▁생일	-18214
▁서슴	-18215
▁서현	-18216
▁소장	-18217
▁수를	-18218
▁수만	-18219
▁수표	-18220
▁승마	-18221
▁실추	-18222
▁심부	-18223
▁앓는	-18224
▁압도	-18225
▁앗아	-18226
▁야외	-18227
▁양주	-18228
▁영입	-18229
▁오간	-18230
▁우월	-18231
▁유행	-18232
▁이것	-18233
▁인부	-18234
▁일베	-18235
▁전임	-18236
▁점차	-18237
▁제때	-18238
▁죽고	-18239
▁중부	-18240
▁지문	-18241
▁집요	-18242
▁청부	-18243
▁커플	-18244
▁하얀	-18245
▁한밤	-18246
▁함바	-18247
▁해줄	-18248
▁행인	-18249
▁흐느	-18250
개월로	-18251
건강의	-18252
검사와	-18253
경찰과	-18254
기관인	-18255
기억이	-18256
능력을	-18257
됐었다	-18258
렴치한	-18259
방송을	-18260
방지를	-18261
사유가	-18262
산동의	-18263
상수련	-18264
석으로	-18265
순경의	-18266
아이돌	-18267
예수교	-18268
오기도	-18269
으로도	-18270
이씨는	-18271
인지를	-18272
작업이	-18273
잘못을	-18274
장씨는	-18275
절차에	-18276
정당한	-18277
졌는데	-18278
조치가	-18279
직원의	-18280
책으로	-18281
총장은	-18282
치기를	-18283
할만한	-18284
허가를	-18285
(35·	-18286
.3%)	-18287
1500	-18288
mlee	-18289
▁105	-18290
▁1~3	-18291
▁350	-18292
▁URL	-18293
▁가격해	-18294
▁가두고	-18295
▁가족들	-18296
▁감독을	-18297
▁강의를	-18298
▁강화한	-18299
▁같다고	-18300
▁같다는	-18301
▁개정을	-18302
▁결과도	-18303
▁경감은	-18304
▁고객을	-18305
[...]
